{"version":"1.0","truncation":null,"padding":null,"added_tokens":[{"id":0,"special":true,"content":"<s>","single_word":false,"lstrip":false,"rstrip":false,"normalized":true},{"id":1,"special":true,"content":"<pad>","single_word":false,"lstrip":false,"rstrip":false,"normalized":true},{"id":2,"special":true,"content":"</s>","single_word":false,"lstrip":false,"rstrip":false,"normalized":true},{"id":3,"special":true,"content":"<unk>","single_word":false,"lstrip":false,"rstrip":false,"normalized":true},{"id":4,"special":true,"content":"<mask>","single_word":false,"lstrip":true,"rstrip":false,"normalized":true}],"normalizer":null,"pre_tokenizer":{"type":"ByteLevel","add_prefix_space":false,"trim_offsets":true},"post_processor":{"type":"RobertaProcessing","sep":["</s>",2],"cls":["<s>",0],"trim_offsets":true,"add_prefix_space":false},"decoder":{"type":"ByteLevel","add_prefix_space":true,"trim_offsets":true},"model":{"type":"BPE","dropout":null,"unk_token":null,"continuing_subword_prefix":"","end_of_word_suffix":"","fuse_unk":false,"vocab":{"<s>":0,"<pad>":1,"</s>":2,"<unk>":3,"<mask>":4,"!":5,"\"":6,"#":7,"$":8,"%":9,"&":10,"'":11,"(":12,")":13,"*":14,"+":15,",":16,"-":17,".":18,"/":19,"0":20,"1":21,"2":22,"3":23,"4":24,"5":25,"6":26,"7":27,"8":28,"9":29,":":30,";":31,"<":32,"=":33,">":34,"?":35,"@":36,"A":37,"B":38,"C":39,"D":40,"E":41,"F":42,"G":43,"H":44,"I":45,"J":46,"K":47,"L":48,"M":49,"N":50,"O":51,"P":52,"Q":53,"R":54,"S":55,"T":56,"U":57,"V":58,"W":59,"X":60,"Y":61,"Z":62,"[":63,"\\":64,"]":65,"^":66,"_":67,"`":68,"a":69,"b":70,"c":71,"d":72,"e":73,"f":74,"g":75,"h":76,"i":77,"j":78,"k":79,"l":80,"m":81,"n":82,"o":83,"p":84,"q":85,"r":86,"s":87,"t":88,"u":89,"v":90,"w":91,"x":92,"y":93,"z":94,"{":95,"|":96,"}":97,"~":98,"¡":99,"¢":100,"£":101,"¤":102,"¥":103,"¦":104,"§":105,"¨":106,"©":107,"ª":108,"«":109,"¬":110,"®":111,"¯":112,"°":113,"±":114,"²":115,"³":116,"´":117,"µ":118,"¶":119,"·":120,"¸":121,"¹":122,"º":123,"»":124,"¼":125,"½":126,"¾":127,"¿":128,"À":129,"Á":130,"Â":131,"Ã":132,"Ä":133,"Å":134,"Æ":135,"Ç":136,"È":137,"É":138,"Ê":139,"Ë":140,"Ì":141,"Í":142,"Î":143,"Ï":144,"Ð":145,"Ñ":146,"Ò":147,"Ó":148,"Ô":149,"Õ":150,"Ö":151,"×":152,"Ø":153,"Ù":154,"Ú":155,"Û":156,"Ü":157,"Ý":158,"Þ":159,"ß":160,"à":161,"á":162,"â":163,"ã":164,"ä":165,"å":166,"æ":167,"ç":168,"è":169,"é":170,"ê":171,"ë":172,"ì":173,"í":174,"î":175,"ï":176,"ð":177,"ñ":178,"ò":179,"ó":180,"ô":181,"õ":182,"ö":183,"÷":184,"ø":185,"ù":186,"ú":187,"û":188,"ü":189,"ý":190,"þ":191,"ÿ":192,"Ā":193,"ā":194,"Ă":195,"ă":196,"Ą":197,"ą":198,"Ć":199,"ć":200,"Ĉ":201,"ĉ":202,"Ċ":203,"ċ":204,"Č":205,"č":206,"Ď":207,"ď":208,"Đ":209,"đ":210,"Ē":211,"ē":212,"Ĕ":213,"ĕ":214,"Ė":215,"ė":216,"Ę":217,"ę":218,"Ě":219,"ě":220,"Ĝ":221,"ĝ":222,"Ğ":223,"ğ":224,"Ġ":225,"ġ":226,"Ģ":227,"ģ":228,"Ĥ":229,"ĥ":230,"Ħ":231,"ħ":232,"Ĩ":233,"ĩ":234,"Ī":235,"ī":236,"Ĭ":237,"ĭ":238,"Į":239,"į":240,"İ":241,"ı":242,"Ĳ":243,"ĳ":244,"Ĵ":245,"ĵ":246,"Ķ":247,"ķ":248,"ĸ":249,"Ĺ":250,"ĺ":251,"Ļ":252,"ļ":253,"Ľ":254,"ľ":255,"Ŀ":256,"ŀ":257,"Ł":258,"ł":259,"Ń":260,"an":261,"ta":262,"qa":263,"ch":264,"ll":265,"un":266,"ay":267,"pi":268,"in":269,"aq":270,"Ġk":271,"una":272,"is":273,"ma":274,"as":275,"ar":276,"kuna":277,"mi":278,"Ġs":279,"wa":280,"yu":281,"Ġp":282,"ti":283,"Ġll":284,"ri":285,"ku":286,"man":287,"Ġh":288,"ya":289,"Ġllaq":290,"Ġ(":291,"cha":292,"pa":293,"isqa":294,"Ã±":295,"Ġllaqta":296,"lla":297,"ru":298,"Ġwa":299,"Ġn":300,"uk":301,"ka":302,"Ġsu":303,"qan":304,"Ġq":305,"tu":306,"Ġka":307,"ĠP":308,"Ġnisqa":309,"us":310,"wan":311,"ra":312,"ki":313,"ĠA":314,"Ġch":315,"imi":316,"Ġma":317,"ĠC":318,"ĠS":319,"Ġwata":320,"Ġr":321,"Ġd":322,"Ġhuk":323,"am":324,"ap":325,"uy":326,"ĠM":327,"manta":328,"ruw":329,"ur":330,"Ġsimi":331,"iq":332,"Ġm":333,"Ġnisqaqa":334,"yuq":335,"ul":336,"Ġllaqtapi":337,"uq":338,"Ġ1":339,"on":340,"Ġmama":341,"nin":342,"Ġa":343,"Ġri":344,"Ġruna":345,"ĠÃ±":346,"ill":347,"Ġsuyu":348,"er":349,"chi":350,"Ġpa":351,"Ġki":352,"ĠK":353,"Ġw":354,"pas":355,"Ġi":356,"ist":357,"en":358,"ĠH":359,"anqa":360,"ina":361,"ĠL":362,"es":363,"Ġ\"":364,"ins":365,"Ġsimipi":366,"hi":367,"Ġ-":368,"aw":369,"istri":370,"os":371,"ĠU":372,"paq":373,"al":374,"ĠQ":375,"ruwins":376,"Ġkay":377,"ĠB":378,"ruwinsya":379,"asti":380,"arqan":381,"ĠW":382,"Ġpruwinsya":383,"ĠR":384,"Ġde":385,"ĠI":386,"kun":387,"taq":388,"Ġqa":389,"at":390,"qu":391,"astilla":392,"ĠCh":393,"Ġ2":394,"ĠÃ±iq":395,"or":396,"ana":397,"chu":398,"âĢ":399,"ĠT":400,"kuy":401,"istritu":402,"Ġya":403,"chay":404,"asqa":405,"ĠÃ±iqin":406,"li":407,"llapi":408,"Ġsuti":409,"Ġdistritu":410,"tin":411,"si":412,"Ġkarqan":413,"ĠPi":414,"Ġwatapi":415,"Ġkan":416,"yan":417,"kunata":418,"may":419,"Ġt":420,"Ġsuyupi":421,"chaw":422,"el":423,"Ġman":424,"qar":425,"ari":426,"Ġsutiyuq":427,"Ġkillapi":428,"uyu":429,"kama":430,"illqa":431,"ĠJ":432,"apaq":433,"Ch":434,"to":435,"Ġchay":436,"uli":437,"kastilla":438,"ĠD":439,"rqan":440,"Ġqh":441,"Ġllaqtam":442,"uri":443,"ci":444,"Ġicha":445,"ama":446,"usqa":447,"ĠG":448,"awa":449,"00":450,"ĠY":451,"Ġqillqa":452,"Ã¡":453,"qarisqa":454,"Ġta":455,"ws":456,"ÃŃ":457,"Ġllaqt":458,"Ġ19":459,"amk":460,"om":461,"Ġpaqarisqa":462,"Ġas":463,"ind":464,"Ġru":465,"\")":466,"la":467,"ip":468,"Ġkaws":469,"atun":470,"ĠUma":471,").":472,"ĠĊ":473,"ĠPiruw":474,"Ġu":475,"ach":476,"anta":477,"ayuq":478,"ro":479,"Ġpruwinsyapi":480,"Ġqall":481,"aqta":482,"chasqa":483,"ucha":484,"Ġay":485,"Ġrunakuna":486,"kch":487,"ni":488,"ĠâĢ":489,"di":490,"aryu":491,"Ã³":492,"yanu":493,"ĠwaÃ±":494,"kunapi":495,"Ġkal":496,"Ġyu":497,"indaryu":498,"Ġkaq":499,"Ġkalindaryu":500,"Ġpi":501,"19":502,"sqa":503,"all":504,"kan":505,"ray":506,"Ġllamk":507,"Ġmana":508,"ĠN":509,"chwa":510,"Ġmun":511,"tam":512,"chis":513,"Ġmi":514,"puy":515,"im":516,"re":517,"kay":518,"pu":519,"Ã©":520,"Ġpacha":521,"Ġrunaqa":522,"do":523,"wya":524,"ĠAn":525,"Ġall":526,"ĠE":527,"llu":528,"Ġllaqtanqa":529,"co":530,"ir":531,"Ã±a":532,"ca":533,"Ġti":534,"Ġtu":535,"tan":536,"uch":537,"ik":538,"Ġllaqtayuq":539,"Ġqallar":540,"isip":541,"asi":542,"ĠF":543,"um":544,"ons":545,"Ġ(*":546,"Ġhawa":547,"chik":548,"isipyu":549,"ara":550,"da":551,"Ġ3":552,"čĊ":553,"inki":554,"ol":555,"),":556,"Ġaswan":557,"te":558,"kunaqa":559,"wi":560,"Ġhatun":561,"ha":562,"hu":563,"Ġrikch":564,"Ġqallarisqa":565,"Ġwan":566,"Ġkiti":567,"hichwa":568,"aymi":569,"chawwan":570,"Runa":571,"Ġwi":572,"llan":573,"apuy":574,"Ġmay":575,"ĠwaÃ±usqa":576,"Ġkalindaryukama":577,"tig":578,"omm":579,"ispa":580,"uriya":581,"pay":582,"ommons":583,"tiguriya":584,"Ġj":585,"Ġkama":586,"unchaw":587,"Ġwataqa":588,"kunayuq":589,"ran":590,"Ġhina":591,"armi":592,"ĠSan":593,"ĠV":594,"ayta":595,"spa":596,"uti":597,"piqa":598,"Ã³n":599,"pam":600,"uliwya":601,"Ġmunisipyu":602,"has":603,"ulyanu":604,"dya":605,"ĠÃ±aw":606,"Ġima":607,"Commons":608,"ull":609,"br":610,"kunayuqmi":611,"lu":612,"gt":613,"lt":614,"Ġur":615,"Ġuma":616,"Ġwatam":617,"chiy":618,"ĠLi":619,"ulti":620,"puynin":621,"ĠMa":622,"tun":623,"Ġqucha":624,"Ġkapuynin":625,"Ġmulti":626,"sa":627,"midya":628,"ani":629,"Ġl":630,"Ġmultimidya":631,"Ġkapuyninkunayuqmi":632,"na":633,"aspa":634,"Ġ_":635,"ĠHulyanu":636,"Ġ/":637,"chaq":638,"way":639,"pan":640,"gu":641,"Ġallin":642,"ĠBuliwya":643,"Ġrimay":644,"uÃ±":645,"Ġpuk":646,"Ġin":647,"Ġis":648,"Ġan":649,"hasku":650,"Ġchhasku":651,"kin":652,"lli":653,"ĠMar":654,"kuq":655,"kunam":656,"uliti":657,"01":658,"ĠChay":659,"Ãĳ":660,"go":661,"vi":662,"Ġy":663,"Kay":664,"ĠWi":665,"Ġkastilla":666,"kunap":667,"rka":668,"unka":669,"Ġ18":670,"unan":671,"le":672,"chin":673,"iy":674,"Ġc":675,"aynin":676,"ĠIn":677,"ĠSuyu":678,"apa":679,"Ġ,":680,"ak":681,"asqan":682,"Ġhay":683,"Ka":684,"Ll":685,"ĠSimi":686,"Ġyachay":687,"Ġ5":688,"Ġcha":689,"Ġyura":690,"pe":691,"urin":692,"Ġra":693,"Ġriman":694,"de":695,"llaqta":696,"aya":697,"pampa":698,"acha":699,"iti":700,")\"":701,"anku":702,"Ġrur":703,"Ġurqu":704,"ris":705,"ĠO":706,"Ġpuq":707,"uklla":708,"achay":709,"Ġwak":710,"kwa":711,"lliq":712,"ata":713,"uni":714,"ut":715,"Ġkawsay":716,"ulla":717,"ac":718,"anmi":719,"il":720,"chiq":721,"rika":722,"ash":723,"maq":724,"ukllachasqa":725,"Ġqhapaq":726,"Ġuy":727,"kipi":728,"Ġnispa":729,"istrito":730,"kh":731,"Ġmayu":732,"Ġkuti":733,"Ġraymi":734,"Ġkach":735,"dur":736,"ter":737,"aqmi":738,"ala":739,"Ġpus":740,"untu":741,"Katiguriya":742,"Ġkantun":743,"Ġdistritum":744,"Ġwarmi":745,"ĠDi":746,"inkikuna":747,"iw":748,"Ġiskay":749,"Ġpuquy":750,"ninmi":751,"ulitiku":752,"Ġyacha":753,"hapaq":754,"ce":755,"Ġkar":756,"ue":757,"Ġpay":758,"lan":759,"ÃŃa":760,"Ġqhichwa":761,"Ġwatamanta":762,"kus":763,"llam":764,"pis":765,"Ġati":766,"qi":767,"chan":768,"Ġqarqan":769,"Ã¡n":770,"Ġ200":771,"Ġ4":772,"aki":773,"ĠChi":774,"Ġham":775,"Ġhin":776,"Ġllaqtap":777,"Ġama":778,"taqa":779,"Pi":780,"kunamanta":781,"diya":782,"ph":783,"Ġwasi":784,"ptin":785,"rayku":786,"ĠLl":787,"oq":788,"Ġwill":789,"kipidiya":790,"Ãº":791,"Ġrunakunam":792,"Ã±ay":793,"iya":794,"ĠRo":795,"rin":796,"Ġtukuy":797,"Ġ.":798,"uru":799,"qay":800,"ant":801,"Ġpulitiku":802,"Ġpar":803,"hina":804,"niyuq":805,"ĠâĢİ":806,"ec":807,"ĠLima":808,"tawan":809,"ga":810,"mana":811,"Wi":812,"ab":813,"ĠWikipidiya":814,"kwadur":815,"ura":816,"San":817,"18":818,"anaq":819,"rig":820,"utu":821,"Ġayllu":822,"Ġpuch":823,"et":824,"llanwa":825,"Ġchunka":826,"ĠRi":827,"mara":828,"Ġtiyan":829,"yki":830,"ĠHukllachasqa":831,"Ġ\"(":832,"aran":833,"âĢĻ":834,"ĠAmi":835,"ed":836,"Ġun":837,"luta":838,"Ġ)":839,"An":840,"Ġdistritupi":841,"Ġllaqtanmi":842,"ia":843,"lis":844,"kunatam":845,"qsi":846,"chka":847,"Ãĳaw":848,"ĠAmirika":849,"yun":850,"Ġwakllanwa":851,"ez":852,"\",":853,"Ġsi":854,"lo":855,"Ġpuchuk":856,"ĠMama":857,"Ġ201":858,"chus":859,"usqu":860,"Ġtaki":861,"untur":862,"Ġni":863,"Ġmamallaqta":864,"200":865,"Ġmarka":866,"rigur":867,"ĠDios":868,"Ġwar":869,"Uma":870,"va":871,"ber":872,"Ġancha":873,"Ġriku":874,"za":875,"cia":876,"Ġmus":877,"io":878,"Ġ6":879,"ĠAl":880,"Ġqhaw":881,"ĠGrigur":882,"unku":883,"Ġinti":884,"Ġhayt":885,"anan":886,"ĠIkwadur":887,"kunawan":888,"ĠAr":889,"Ġpukll":890,"unqa":891,"Ġkitilli":892,"ĠQhichwa":893,"ba":894,"ĠâĢł":895,"anka":896,"aytan":897,"ĠJes":898,"uta":899,"urinkuna":900,"ĠGriguryanu":901,"Ġchas":902,"Ġkamay":903,"uku":904,"sh":905,"Ġruw":906,"Ġmikh":907,"em":908,"aqa":909,"Ġqillqakuna":910,"yta":911,"Ġla":912,"Ġrimanku":913,"Ġwatakama":914,"Taytan":915,"uan":916,"Ġkawsaq":917,"ĠKay":918,"âĨ":919,"Chay":920,"Ġway":921,"osÃ©":922,"Ġhanaq":923,"it":924,"Ġrima":925,"Ġmit":926,"Ġimay":927,"isqan":928,"In":929,"Ġaw":930,"ĠYachay":931,"Warmi":932,"kuspa":933,"ĠWa":934,"sqan":935,"Ġsach":936,"Ġb":937,"Ġkatiguriya":938,"Ġlliw":939,"Ġqhulla":940,"ĠMaman":941,"pin":942,"kunapaq":943,"llataq":944,"ampa":945,"ĠPa":946,"ĠkÃ±":947,"Ġkus":948,"rus":949,"ĠYala":950,"era":951,"hin":952,"tapas":953,"ja":954,"Ġnin":955,"ĠÃ±awpaq":956,"Distrito":957,"ĠÂ":958,"Ġchak":959,"Churinkuna":960,"ayki":961,"Ġqallari":962,"Ġ&":963,"th":964,"Ġllaqtaqa":965,"bo":966,"qaq":967,"Ġf":968,"10":969,"china":970,"kunapas":971,"amp":972,"eg":973,"anpaq":974,"Al":975,"ĠwiÃ±":976,"pipas":977,"Ġwatap":978,"ey":979,"Ġqillqaq":980,"Ġastawan":981,"ĠâĢĵ":982,"Ġpusaq":983,"rum":984,"ĠQhapaq":985,"ĠPar":986,"Ġdel":987,"inchi":988,"ĠQusqu":989,"ton":990,"ĠLa":991,"tal":992,"ĠChuq":993,"ĠAs":994,"Ġtar":995,"Ġkachkan":996,"anakuy":997,"kunaman":998,"ayu":999,"Ġkatiguriyapi":1000,"llpa":1001,"Ġuk":1002,"Ġ15":1003,"Ġ7":1004,"Ġwilla":1005,"kurqan":1006,"ĠAnti":1007,"ypi":1008,"org":1009,"Ġnisqapi":1010,"âĨĲ":1011,"ĠKa":1012,"ĠMan":1013,"ĠPiruwpi":1014,"Llaqta":1015,"ĠHatun":1016,"Ġqillqasqa":1017,"Ġ(âĨĲ":1018,"Ġkilla":1019,"apan":1020,"Ġ9":1021,"ern":1022,"rqa":1023,"war":1024,"tapi":1025,"Ġmuna":1026,"ĠiÃ±":1027,"pachawwan":1028,"ĠIs":1029,"ciÃ³n":1030,"ĠCar":1031,"Runakuna":1032,"ĠQull":1033,"du":1034,"ĠEs":1035,"Ġpukyu":1036,"ui":1037,"15":1038,"Ġ8":1039,"Ġachka":1040,"II":1041,"mayu":1042,"chÃ¡":1043,"ej":1044,"Ġchakra":1045,"yay":1046,"Simi":1047,"Ġsutin":1048,"ĠAwya":1049,"Ġsay":1050,"Ġkap":1051,"Ġmarkapi":1052,"llamk":1053,"WiÃ±ay":1054,"Kama":1055,"12":1056,"Ġ17":1057,"Ġkamayuq":1058,"unt":1059,"cion":1060,"Ġaswanta":1061,"kiy":1062,"17":1063,"uma":1064,"chisqa":1065,"ariy":1066,"gen":1067,"riy":1068,"ank":1069,"Ġkanqa":1070,"ÃŃn":1071,"ĠKi":1072,"Ġparki":1073,"quy":1074,"ĠMi":1075,"unu":1076,"wiki":1077,"Chi":1078,"asuyu":1079,"illay":1080,"Ġpuri":1081,"16":1082,"illka":1083,"ink":1084,"Ġtari":1085,"ob":1086,"ispi":1087,"Ġpiluta":1088,"ĠSanta":1089,"ishi":1090,"ano":1091,"llur":1092,"Ġhap":1093,"Ġwakllanwatam":1094,"ĠLlaqta":1095,"mun":1096,"niy":1097,"ali":1098,"Ġumalliq":1099,"Ġap":1100,"Ġqhi":1101,"Ġurqum":1102,"Ġpukyuta":1103,"Ġ(\"":1104,"ero":1105,"aska":1106,"mantam":1107,"par":1108,"Ġtiyanku":1109,"Simikuna":1110,"14":1111,"bya":1112,"ĠAma":1113,"Mama":1114,"Is":1115,"awan":1116,"ĠUmalliq":1117,"13":1118,"Ġyupay":1119,"ĠSuyukuna":1120,"):":1121,"liman":1122,"rq":1123,"Llamk":1124,"Ġyaku":1125,"Ġqull":1126,"Ġaran":1127,"achkan":1128,"20":1129,"Ġmunisipyupi":1130,"iyapu":1131,"bli":1132,"isk":1133,"Ġyachaq":1134,"tina":1135,"Ġmanam":1136,"apusqa":1137,"uyllur":1138,"Ġ199":1139,"Ġuywa":1140,"Ġrimaq":1141,"urqan":1142,"kunan":1143,"ĠRuna":1144,"ic":1145,"uc":1146,"ho":1147,"raq":1148,"ĠHu":1149,"Ay":1150,"akuy":1151,"ens":1152,"Ġaranway":1153,"ista":1154,"Ġanta":1155,"Hawa":1156,"Ġg":1157,"ika":1158,"Ġqallarirqan":1159,"Ġtik":1160,"pata":1161,"aru":1162,"hun":1163,"wasi":1164,"spaÃ±a":1165,"Ġchaymanta":1166,"yuqmi":1167,"araq":1168,"Ġquchamanta":1169,"ve":1170,"Ġrunam":1171,"uya":1172,"allqa":1173,"Ġ[":1174,"vin":1175,"Ġnisqakunaqa":1176,"tt":1177,"Tayta":1178,"Ġo":1179,"Ġ12":1180,"ita":1181,"Ġkawsachkan":1182,"pura":1183,"pim":1184,"inchay":1185,"Ġ14":1186,"kuchu":1187,"ĠUru":1188,"Ġyan":1189,"ral":1190,"uel":1191,"atin":1192,"Ġchi":1193,"dad":1194,"unchay":1195,"uis":1196,"ristu":1197,"Ġpuchukarqan":1198,"Ġ198":1199,"qs":1200,"ver":1201,"Ġmitrum":1202,"Ri":1203,"Kamasqa":1204,"chana":1205,"000":1206,"ĠZ":1207,"kunatapas":1208,"ishiku":1209,"han":1210,"Ġkm":1211,"vo":1212,"ĠSuntur":1213,"ĠRe":1214,"kchunqa":1215,"ninta":1216,"Ġpachapi":1217,"Ġqhaway":1218,"res":1219,"ulitika":1220,"taqmi":1221,"ĠAntikunapi":1222,"Ġkuyu":1223,"Ġmas":1224,"Ġkasqan":1225,"ĠPikchunqa":1226,"Wa":1227,"po":1228,"uw":1229,"llay":1230,"Ġwat":1231,"As":1232,"ĠChuqiyapu":1233,"hata":1234,"illa":1235,"siya":1236,"ĠJosÃ©":1237,"pun":1238,"anchay":1239,"ĠYalapi":1240,"Ġsuyum":1241,"uraq":1242,"Ġrunakunap":1243,"ĠhuÃ±":1244,"ing":1245,"Ġ16":1246,"ĠCo":1247,"Ġsaq":1248,"uray":1249,"ËĲ":1250,"qo":1251,"ag":1252,"Ġhinallataq":1253,"Piruw":1254,"Ġkawsachkanku":1255,"ena":1256,"Ġ31":1257,"Ġwall":1258,"ĠKristu":1259,"Ġ10":1260,"Ġris":1261,"ĠAy":1262,"Ġkikin":1263,"anqaman":1264,"Ġruraq":1265,"ĠWay":1266,"Huk":1267,"eo":1268,"dia":1269,"Ġ0":1270,"Ġsimitam":1271,"Qhapaq":1272,"ami":1273,"Ġkamachi":1274,"tro":1275,"pacha":1276,"Ġlliwmanta":1277,"Ġph":1278,"NA":1279,"and":1280,"Ġkamachiy":1281,"Ġqan":1282,"Ġhampi":1283,"201":1284,"ĠGu":1285,"Ġkalindaryuyuq":1286,"ĠQullasuyu":1287,".,":1288,"Pulitika":1289,"Ġtuku":1290,"Ġquyllur":1291,"ĠSe":1292,"mp":1293,"chkan":1294,"bi":1295,"Ġmusuq":1296,"Yachay":1297,"har":1298,"dor":1299,"Ġrunas":1300,"Ġrimaykuna":1301,"kaq":1302,"Ġ197":1303,"Ġnirqan":1304,"Ġhukchasqa":1305,"tay":1306,"Ġllaqtapiqa":1307,"Ġqillqasqan":1308,"chua":1309,"Ġkaru":1310,"char":1311,"mo":1312,"kichis":1313,"llo":1314,"Ġllaqtakuna":1315,"ĠPer":1316,"Distritu":1317,"Ġsiq":1318,"usuq":1319,"Ġichaqa":1320,"asun":1321,"ĠMo":1322,"uspa":1323,"asa":1324,"kuynin":1325,"ĠSi":1326,"Ġkim":1327,"lish":1328,"suyu":1329,"ĠÃ±awpan":1330,"ĠKristup":1331,"ria":1332,"Ġ13":1333,"ĠDyu":1334,"ĠMarÃŃa":1335,"qari":1336,".&":1337,"50":1338,"Kunan":1339,"ati":1340,"talya":1341,"awi":1342,"astillan":1343,"Ġ:":1344,"puni":1345,"Ġkarqa":1346,"rqu":1347,"ino":1348,"tuwa":1349,"umi":1350,"Ġphata":1351,"Ġatin":1352,"irwa":1353,"Wik":1354,"Ġ20":1355,"rovin":1356,"edro":1357,"ud":1358,"Ġkunan":1359,"198":1360,"Ġli":1361,"unchawninmi":1362,"199":1363,"ĠFran":1364,"inku":1365,"Ġwarmiqa":1366,"Ġak":1367,"Ġwaq":1368,"kunaq":1369,"ww":1370,"astillanu":1371,"ĠPay":1372,"api":1373,"ĠQucha":1374,"Ġ196":1375,"Ġtiy":1376,"wru":1377,"Ġen":1378,"Ġphatakuna":1379,"Ġqillqaypi":1380,"aku":1381,"ayku":1382,"upa":1383,"Ġwas":1384,"he":1385,"Ġkanku":1386,"peci":1387,"utuqsi":1388,"hintina":1389,"qash":1390,"ĠIspaÃ±a":1391,"chisqan":1392,"aj":1393,"pus":1394,"Ġrisirwa":1395,"Ã©s":1396,"Ġallpa":1397,"muq":1398,"ĠJuan":1399,"ĠMishiku":1400,"Ġtarpuy":1401,"ark":1402,"11":1403,"ĠInka":1404,"Ġrit":1405,"Ġpuchukaynin":1406,"ĠAri":1407,"lia":1408,"Ġqullqi":1409,"sach":1410,"Ġaymara":1411,"ne":1412,"Ġwawa":1413,"que":1414,"isi":1415,"Ġchani":1416,"Ġlaya":1417,"Ġ194":1418,"Ġunquy":1419,"taray":1420,"rovincia":1421,"ukuy":1422,"Ġwatakuna":1423,"30":1424,"ĠLe":1425,"ĠKastillanu":1426,"ĠRan":1427,"Ġriqs":1428,"ĠLo":1429,"uen":1430,"Ġruru":1431,"Ġchask":1432,"Ġkantaray":1433,"ĠNa":1434,"uechua":1435,"Ġawqaq":1436,"Wikis":1437,"qaqa":1438,"ankupaq":1439,"unchawqa":1440,"Ġilla":1441,"Ġqati":1442,"limanya":1443,"antin":1444,"taj":1445,"ĠEl":1446,"llin":1447,"à¤":1448,"196":1449,"ĠâĢ¢":1450,"Ġsituwa":1451,"unin":1452,"Ama":1453,"uka":1454,"Ãĳawpaq":1455,"ĠÃĳ":1456,"ento":1457,"uer":1458,"ĠDistrito":1459,"Pa":1460,"Âł":1461,"ĠCor":1462,"Ġsapa":1463,"ona":1464,"ĠÃ±awpa":1465,"Ġichataq":1466,"Ġkalindaryupi":1467,"ĠBar":1468,"Ġkaqmanta":1469,"uychi":1470,"ĠBr":1471,"ĠBuliwyapi":1472,"pecies":1473,"Ġes":1474,"aqu":1475,"Ġllank":1476,"qipa":1477,"Ġrurasqa":1478,"Ġhinaspa":1479,"anqayuqmi":1480,"Wikispecies":1481,"zo":1482,"Ġsut":1483,"Ġpuchukayninkama":1484,"anakuna":1485,"ĠMari":1486,"Ã©n":1487,"pasqa":1488,"Ġkanayuq":1489,"antÃ³n":1490,"las":1491,"Ġukhu":1492,"ini":1493,"tia":1494,"ĠPunu":1495,"apusqakuna":1496,"ĠÐ":1497,"manu":1498,"Mar":1499,"Ê¼":1500,"Ġsinchi":1501,"Ġtakiq":1502,"Ar":1503,"cis":1504,"Ġchun":1505,"ĠWan":1506,"asil":1507,"ck":1508,"Par":1509,"Sapaq":1510,"Ġpruwinsyam":1511,"icha":1512,"osa":1513,"raynin":1514,"La":1515,"197":1516,"ea":1517,"ĠX":1518,"uchu":1519,"var":1520,"âĢı":1521,"willka":1522,"anin":1523,"Ġrunap":1524,"Ġsuyup":1525,"Ġuyar":1526,"cio":1527,"kuta":1528,"aykipaq":1529,"llun":1530,"gar":1531,"Li":1532,"los":1533,"Ġre":1534,"ĠUrin":1535,"tonio":1536,"Ġhinam":1537,"CH":1538,"isa":1539,"rib":1540,"mani":1541,"Ġmaq":1542,"dr":1543,"min":1544,"muray":1545,"ĠSal":1546,"illu":1547,"imin":1548,"des":1549,"ei":1550,"eri":1551,"aqkuna":1552,"Ġamachaq":1553,"ĠwiÃ±aq":1554,"ĠPas":1555,"Ġkaptin":1556,"ĠItalya":1557,"Ġkash":1558,"Ġkas":1559,"..":1560,"ps":1561,"ylla":1562,"Ġmanaraq":1563,"fi":1564,"phi":1565,"Man":1566,"Ġkaspa":1567,"Ġchur":1568,"Ġpaqari":1569,"25":1570,"ĠHuk":1571,"mu":1572,"Ġ11":1573,"ĠNi":1574,"rumayu":1575,"Ġkaynin":1576,"witu":1577,"Ġchaniyuq":1578,"arqa":1579,"ruwan":1580,"ikin":1581,"ĠSa":1582,"Ġrakiy":1583,"ke":1584,"kha":1585,"Ġpisi":1586,"kusqan":1587,"ug":1588,"uj":1589,"Ġwakin":1590,"chqa":1591,"Ġqill":1592,"Ġkalindaryukamataq":1593,"31":1594,"Ġv":1595,"Ġkun":1596,"Ġyapuy":1597,"askachawwan":1598,"Hatun":1599,"Ġintichawwan":1600,"ĠAya":1601,"Ġwakllanwatapi":1602,"uychichawwan":1603,"28":1604,"atu":1605,"Ġkillachawwan":1606,"Mun":1607,"ÃŃo":1608,"wata":1609,"Ġatipachawwan":1610,"Ġquyllurchawwan":1611,"Alma":1612,"Ġpaw":1613,"Ġillapachawwan":1614,"ĠNe":1615,"ĠPerÃº":1616,"Kaymi":1617,"anqamanta":1618,"iru":1619,"riway":1620,"ĠMon":1621,"27":1622,"ardo":1623,"Ġwillay":1624,"tes":1625,"Ġaymuray":1626,"Ġwaqa":1627,"kunku":1628,"Ġmanan":1629,"Ġwaray":1630,"ĠÂ¿":1631,"Ġ),":1632,"anqakuna":1633,"âĢ¡":1634,"Ġchayqa":1635,"les":1636,"up":1637,"Ġ).":1638,"Kuyu":1639,"tor":1640,"ĠAnqash":1641,"ĠâĢİâĢ¡":1642,"Ġchaski":1643,"Ġkimsa":1644,"Ġkitipi":1645,"anpi":1646,"ish":1647,"ĠAp":1648,"ĠKun":1649,"ĠJo":1650,"niyki":1651,"inkisqa":1652,"upi":1653,"Ġtayta":1654,"ĠPedro":1655,"urku":1656,"Ġ195":1657,"Ġpawqar":1658,"muy":1659,"ĠJe":1660,"say":1661,"Ġ24":1662,"24":1663,"Ð¸":1664,"Ġhunt":1665,"amarka":1666,"Ġ28":1667,"qun":1668,"Ġsallqa":1669,"tuy":1670,"âĢİ":1671,"tas":1672,"ayninpi":1673,"ĠKrus":1674,"Ġ;":1675,"kusqa":1676,"Ġayriway":1677,"cho":1678,"ela":1679,"26":1680,"cional":1681,"Ã±iq":1682,"Ġsun":1683,"manmi":1684,"quwiki":1685,"den":1686,"Ġtikray":1687,"Ġruran":1688,"Ġqhipaq":1689,"ko":1690,"mantaqa":1691,"Ayllu":1692,"JosÃ©":1693,"unwa":1694,"Ġchin":1695,"ĠDe":1696,"ruwanu":1697,"Mayu":1698,"Ġllapan":1699,"kamay":1700,"Ġsumaq":1701,"ĠÃ":1702,"Tik":1703,"usta":1704,"ĠAlimanya":1705,"ampi":1706,"Hukllachasqa":1707,"ĠBo":1708,"Ġtuk":1709,"Ġkall":1710,"ĠQillqa":1711,"ĠAriqipa":1712,"ĠMana":1713,"TA":1714,"Ġrunakunata":1715,"publi":1716,"ĠSunturnin":1717,"ĠRansiya":1718,"ĠHin":1719,"rist":1720,"ando":1721,"wanmi":1722,"Ġsimimanta":1723,"ĠDiospa":1724,"ĠTayta":1725,"29":1726,"avi":1727,"inkimuq":1728,"Ġtaripay":1729,"ang":1730,"Ġrumi":1731,"chispa":1732,"Ġllaqtakunapi":1733,"Ġyuyay":1734,"berto":1735,"Ġmater":1736,"Ġsimita":1737,"Ġmunan":1738,"Ġmuyu":1739,"akiy":1740,"ora":1741,"Ġ*":1742,"rigu":1743,"Ġpukllaqmi":1744,"21":1745,"Bac":1746,"Way":1747,"Ð°":1748,"Ġel":1749,"aykuna":1750,"Ġal":1751,"Ġ30":1752,"Distritupiqa":1753,"Ġind":1754,"amarq":1755,"195":1756,"Ġqillqaqmi":1757,"ĠKichwa":1758,"ry":1759,"Ġayamarq":1760,"risti":1761,"yapi":1762,"Ġ25":1763,"Ġsuntur":1764,"Ġwallapi":1765,"chuy":1766,"ong":1767,"guel":1768,"ulum":1769,"ĠArhintina":1770,"ĠQuchapampa":1771,"Munisipyu":1772,"Ġqatiq":1773,"kar":1774,"aqucha":1775,"mas":1776,"ralan":1777,"ĠChili":1778,"Ã¼":1779,"ĠAntonio":1780,"Ġallinta":1781,"Ġyanap":1782,"ĠUn":1783,"Ġatiy":1784,"ine":1785,"che":1786,"Ã±i":1787,"23":1788,"ts":1789,"áĥ":1790,"risqa":1791,"tiago":1792,"ĠWanka":1793,"Ma":1794,"Ġyuram":1795,"Ġllapa":1796,"Ġruraqpa":1797,"publika":1798,"AY":1799,"Ġwaki":1800,"ĠPacha":1801,"awpi":1802,"Ġrunasimi":1803,"Suti":1804,"kunataqa":1805,"Ġchaypi":1806,"194":1807,"Ġtikraykuna":1808,"ullu":1809,"chirqan":1810,"son":1811,"Ġniy":1812,"ĠAmarumayu":1813,"cera":1814,"arin":1815,"rio":1816,"itikuna":1817,"ĠWar":1818,"inkimuqkuna":1819,"Kikin":1820,"marka":1821,"chaqa":1822,"eni":1823,"Ġ23":1824,"ashamarka":1825,"22":1826,"ĠÎ":1827,"ĠSuÃ±":1828,"for":1829,"ĠBrasil":1830,"alla":1831,"Ġmamallaqtapi":1832,"Ã±am":1833,"Ġchaw":1834,"ĠMay":1835,"Ġkasqa":1836,"uyan":1837,"ĠUni":1838,"Ġtawa":1839,"uqa":1840,"Ġar":1841,"ĠAm":1842,"olo":1843,"ĠSo":1844,"kuyta":1845,"CantÃ³n":1846,"Â²":1847,"aymara":1848,"tra":1849,"Ġyawar":1850,"Ġlluq":1851,"amay":1852,"amb":1853,"Ġpukllaq":1854,"Ayllupaq":1855,"Ġrunakunaqa":1856,"hinataq":1857,"men":1858,"Ġe":1859,"tr":1860,"Ġjina":1861,"trocera":1862,"Bactrocera":1863,"Yachaywasi":1864,"car":1865,"ario":1866,"unchawpi":1867,"ĠUq":1868,"obel":1869,"tins":1870,"KU":1871,"ĠPo":1872,"akuna":1873,"Ġllim":1874,"Ġsimikunatam":1875,"rez":1876,"ĠYaw":1877,"Ãĳawra":1878,"wrupa":1879,"ĠCol":1880,"ĠGar":1881,"Ġrimanapaq":1882,"Ġchanin":1883,"akuykuna":1884,"Ġakll":1885,"Si":1886,"Ġsuq":1887,"Ġ26":1888,"kantin":1889,"Ġjisk":1890,"anankuna":1891,"unta":1892,"Ġlos":1893,"AQ":1894,"Ġruwan":1895,"Santa":1896,"aqtin":1897,"ĠRa":1898,"ĠwiÃ±ay":1899,"Allpa":1900,"tura":1901,"Ġllaqtan":1902,"Iskay":1903,"cisco":1904,"Ġruwa":1905,"Ġpin":1906,"Ġqucham":1907,"Hu":1908,"eli":1909,"tus":1910,"qucha":1911,"Kuyuylla":1912,"Mayninpi":1913,"rid":1914,"mantapas":1915,"Ġrikuriy":1916,"ĠRepublika":1917,"Qhichwa":1918,"Ġwaqay":1919,"eb":1920,"gi":1921,"kamam":1922,"antanakuy":1923,"arqanku":1924,"Ġutaq":1925,"kunataq":1926,"Ġruray":1927,"se":1928,"ĠAle":1929,"ĠLlamk":1930,"Tiy":1931,"llata":1932,"Ġ29":1933,"uliku":1934,"Ġsan":1935,"ĠFern":1936,"tis":1937,"ĠSu":1938,"Ġ22":1939,"inlish":1940,"Ġ27":1941,"ulumbya":1942,"Di":1943,"Ġnina":1944,"Ġnir":1945,"cos":1946,"Ġpruwinsyap":1947,"Ġ21":1948,"Ġpachakwa":1949,"ĠBi":1950,"ĠYu":1951,"Tikraynin":1952,"Qucha":1953,"mpi":1954,"Ġ193":1955,"chinapaq":1956,"Ġpampa":1957,"Ġriqsisqa":1958,"usi":1959,"Ã¡s":1960,"versi":1961,"eta":1962,"Ã¶":1963,"cal":1964,"lor":1965,"imsa":1966,"tos":1967,"Ġnisqan":1968,"cas":1969,"ninqa":1970,"Ġcon":1971,"gua":1972,"Î±":1973,"Ġsuyukuna":1974,"Mi":1975,"Ġriqsi":1976,"ĠRomanu":1977,"oqa":1978,"ĠPh":1979,"Ġindi":1980,"ras":1981,"Ġqhari":1982,");":1983,"orge":1984,"rra":1985,"Ġyana":1986,"killa":1987,"anqaqa":1988,"Ġchunkantin":1989,"don":1990,"gel":1991,"Piluta":1992,"Ali":1993,"qanku":1994,"Ġnisqataq":1995,"Ð¾":1996,"Ġkanqaku":1997,".[":1998,"ĠAir":1999,"Ġkusi":2000,"AN":2001,"MI":2002,"Ġayllun":2003,"Ġsin":2004,"olÃŃ":2005,"nintin":2006,"ĠQispi":2007,"El":2008,"Ġsap":2009,"Ġtakichaq":2010,"Ġchanta":2011,"ula":2012,"hn":2013,"ub":2014,"ĠØ":2015,"ĠPe":2016,"Î¿":2017,"Ġlatin":2018,"ĠRimana":2019,"Ġkapuq":2020,"riya":2021,"ĠwaÃ±u":2022,"Ġkamasqa":2023,"chej":2024,"Ġllaqtamanta":2025,"ĠBe":2026,"Ro":2027,"Ġyapasqa":2028,"Ġpiruwanu":2029,"Tiyay":2030,"Ima":2031,"ninkuna":2032,"der":2033,"Ġchaq":2034,"ĠmaÃ±a":2035,"Ġach":2036,"anqapi":2037,"Ġpis":2038,"ĠMad":2039,"ĠiÃ±iy":2040,"ense":2041,"bur":2042,"ayi":2043,"ĠSh":2044,"Mana":2045,"Ġkichwa":2046,"uenos":2047,"Ġindihina":2048,"Buliwya":2049,"jina":2050,"nes":2051,"Âº":2052,"Ġtiya":2053,"Ġkutitam":2054,"Pruwinsya":2055,"fa":2056,"ĠChunwa":2057,"jo":2058,"chas":2059,"Ġwatakunaqa":2060,"Ġkanman":2061,"ĠMiguel":2062,"ĠAires":2063,"Ġyaqa":2064,"hay":2065,"ĠIskay":2066,"Qall":2067,"tÃŃn":2068,"mar":2069,"Ã±usqa":2070,"illi":2071,"Ġchunkawata":2072,"Ġwasin":2073,"Ġhark":2074,"ĠÃ±ak":2075,"Car":2076,"asta":2077,"ĠTo":2078,"Ã«":2079,"kunapa":2080,"uÃ±i":2081,"Ġchaskirqan":2082,"mpa":2083,"incha":2084,"Kastilla":2085,"ad":2086,"âĢĵ":2087,"Ġwaranqa":2088,"fo":2089,"ĠAb":2090,"ĠKashamarka":2091,"80":2092,"Kan":2093,"Ġkallpa":2094,"ĠCre":2095,"ĠTi":2096,"Ġtiyaq":2097,"ros":2098,"aspi":2099,"Ã±or":2100,"lin":2101,"tad":2102,"Ġsuyun":2103,"Ġsutichasqa":2104,"quia":2105,"ĠSuÃ±ay":2106,"ĠLuis":2107,"allka":2108,"ĠVi":2109,"via":2110,"ĠKatiguriya":2111,"Ġwalltay":2112,"Ġyachachiq":2113,"Ġamachasqa":2114,"Ġson":2115,"Ġhuch":2116,"ĠÃ±a":2117,"ĠQu":2118,"no":2119,"ĠHunin":2120,"ĠJesusqa":2121,"anchis":2122,"lati":2123,"ĠPiruwpa":2124,"Ġpichqa":2125,"Munisipyupiqa":2126,"was":2127,"ĠIwrupa":2128,"tamento":2129,"wk":2130,"ÃŃs":2131,"400":2132,"latin":2133,"Ġyachachiy":2134,"ĠRoma":2135,"ĠDyus":2136,"pio":2137,"wanpas":2138,"Ġ2001":2139,"ĠWankawillka":2140,"Ġmin":2141,"ĠVal":2142,"ys":2143,"tinpi":2144,"Ġsuqta":2145,"wri":2146,"ente":2147,"liku":2148,"sis":2149,"uwa":2150,"usa":2151,"ĠLic":2152,"ard":2153,"ĠPal":2154,"ĠTe":2155,"Ġraki":2156,"\".":2157,"unchik":2158,"ĠCommons":2159,"ĠChinchay":2160,"Ġmayum":2161,"ĠAyakuchu":2162,"Juan":2163,"usaq":2164,"oni":2165,"ĠEn":2166,"pedia":2167,"ĠNacional":2168,"40":2169,"ĠBa":2170,"ĠCarlos":2171,"dae":2172,"Rikch":2173,"anti":2174,"oro":2175,"Ġkananpaq":2176,"genus":2177,"ĠPaw":2178,"ĠKulumbya":2179,"ose":2180,"ĠWasi":2181,"Ġdi":2182,"Ġahinataq":2183,"ĠManuel":2184,"tur":2185,"Ġrun":2186,"Ġimaymana":2187,"Ġchall":2188,"gra":2189,"ĠKama":2190,"Ġwillakuna":2191,"ĠAw":2192,"ĠCa":2193,"eral":2194,"uyanchasqa":2195,"ĠCon":2196,"ĠRakiy":2197,"Ġwillasun":2198,"Ãĳawpa":2199,"partamento":2200,"Aswan":2201,"Ġsaqillay":2202,"tion":2203,"Ġchaskinki":2204,"ĠLicense":2205,"Ġqillqataqa":2206,"âĸ":2207,"chun":2208,"Chuq":2209,"Ġyuy":2210,"ative":2211,"Qusqu":2212,"ution":2213,"ĠJesus":2214,"Shar":2215,"ĠCas":2216,"manqa":2217,"Ġmar":2218,"Ġhukchasqakuna":2219,"ĠCreative":2220,"roquia":2221,"Ġrurasqan":2222,"aspan":2223,"ĠAtt":2224,"]]":2225,"ancha":2226,"ene":2227,"ĠBer":2228,"Ġwillasunaykipaq":2229,"eAli":2230,"tado":2231,"apuypaq":2232,"ĠphatakunachÃ¡":2233,"ribution":2234,"inkisqapi":2235,"Mayukuna":2236,"Ġsaqillaykamam":2237,"ShareAli":2238,"ĠAttribution":2239,"ShareAlike":2240,"paj":2241,"unici":2242,"Ġpurin":2243,"apas":2244,"ok":2245,"Ġnis":2246,"//":2247,"Ã¤":2248,"Ġwatapis":2249,"allp":2250,"ĠAnta":2251,"ĠTik":2252,"dez":2253,"ĠUmalliqnin":2254,"Waki":2255,"anchik":2256,"ĠSuyukunapi":2257,"Ġumalliqnin":2258,"60":2259,"Ġphu":2260,"ere":2261,"Ġyach":2262,"ayka":2263,"tampu":2264,"ĠÃ±iqi":2265,"Ġpachak":2266,"Lli":2267,"imaq":2268,"Ġalli":2269,"chanapaq":2270,"qe":2271,"Ġtak":2272,"Ãºs":2273,"Ġof":2274,"oc":2275,"://":2276,"Ġphi":2277,"Ġpayta":2278,"ath":2279,"Ġse":2280,"Ġqo":2281,"Ġpachan":2282,"Ðµ":2283,"Ġpur":2284,"ninpi":2285,"39":2286,"Ġmikhuq":2287,"Ġninchik":2288,"Ġmaqanakuy":2289,"38":2290,"usan":2291,"Ġchim":2292,"ĠRam":2293,"Ġkapchiy":2294,"ĠUr":2295,"sim":2296,"Ġkasqanta":2297,"kunqa":2298,"ĠMarkus":2299,"Ġruway":2300,"Ġmikhuna":2301,"ven":2302,"Ġpara":2303,"inkikunata":2304,"ham":2305,"yn":2306,"ĠMusuq":2307,"Ki":2308,"Pacha":2309,"tiy":2310,"ĠAra":2311,"uerto":2312,"âĸº":2313,"70":2314,"be":2315,"llis":2316,"ĠProvincia":2317,"Ġpisqu":2318,")âĢİ":2319,"35":2320,"ĠMat":2321,"land":2322,"gal":2323,"Ġpro":2324,"Ġmall":2325,"Ġ190":2326,"omin":2327,"Ġrimasqa":2328,"Hulyanu":2329,"Un":2330,"cu":2331,"Qillqa":2332,"ĠSantiago":2333,"niyoq":2334,"ĠDyuspa":2335,"www":2336,"Co":2337,"Ġvi":2338,"ans":2339,"Ġnisqap":2340,"ord":2341,"ĠBuenos":2342,"ĠChayrayku":2343,"Ġkantunmi":2344,"pitaq":2345,"urimaq":2346,"Fran":2347,"Ð²":2348,"anqakunam":2349,"Ġkantunpi":2350,"latirra":2351,"unicipio":2352,"Say":2353,"rÃŃ":2354,"tana":2355,"Ġ=":2356,"inti":2357,"ĠWanuku":2358,"ĠNew":2359,"ig":2360,"ulu":2361,"ulun":2362,"ork":2363,"Ġimayna":2364,"ira":2365,"Ġapa":2366,"ĠUrqu":2367,"ĠLipis":2368,"ĠÂ·":2369,"ĠSil":2370,"ĠQuechua":2371,"ĠTukuy":2372,"36":2373,"riq":2374,"rirqan":2375,"ĠFrancisco":2376,"huk":2377,"ĠÃ±iqpi":2378,"Ġkitim":2379,"Ġraphi":2380,"Ġkamachiq":2381,"Ġwayra":2382,"usqan":2383,"][":2384,"ĠPuk":2385,"piri":2386,"Paqarisqa":2387,"so":2388,"tar":2389,"Ġgrigu":2390,"Ġqanchis":2391,"Ġkallpan":2392,"ttps":2393,"Ne":2394,"Ġkh":2395,"Provincia":2396,"qin":2397,"Ġllum":2398,"llapa":2399,"Ġqispi":2400,"zar":2401,"mama":2402,"uqu":2403,"elqa":2404,"ĠNobel":2405,"Ġchaymi":2406,"bot":2407,"Ġtakiqmi":2408,"SA":2409,"ĠQar":2410,"Kaw":2411,"ep":2412,"ĠMor":2413,"allam":2414,"ipa":2415,"lama":2416,"cham":2417,"uÃ±uq":2418,"Aya":2419,"Jo":2420,"Sal":2421,"aka":2422,"ĠLlaqtap":2423,"LL":2424,"ĠPor":2425,"eno":2426,"32":2427,"Ġkurku":2428,"Ã±an":2429,"Ġkayta":2430,"kunanpaq":2431,"ĠMadrid":2432,"Ġchallwa":2433,"lam":2434,"Ġtanta":2435,"manakuy":2436,"Qallariy":2437,"Puk":2438,"cel":2439,"llim":2440,"Ġkaus":2441,"wanqa":2442,"Ġchayta":2443,"ĠSimin":2444,"inis":2445,"Ġwamani":2446,"tuq":2447,"Ġmast":2448,"Ġdes":2449,"ĠChaymi":2450,"Ġkani":2451,"III":2452,"me":2453,"ĠÃĳawpaq":2454,"Kun":2455,"anay":2456,"ĠUralan":2457,"34":2458,"Ġllika":2459,"kichu":2460,"Ġmawk":2461,"ikr":2462,"Ġllimph":2463,"ota":2464,"Î½":2465,"manchu":2466,"Ġkawsaynin":2467,"inkimun":2468,"ÑĢ":2469,"Ġkhu":2470,"ĠwaÃ±uy":2471,"Ġmunay":2472,"90":2473,"tre":2474,"Ġhun":2475,"Ġqhatu":2476,"Ġpuriq":2477,"Ġniyta":2478,"tinsuyu":2479,"ablo":2480,"Ġsaywa":2481,"cul":2482,"law":2483,"ÏĤ":2484,"kiq":2485,"ĠHuÃ±":2486,"lisya":2487,"De":2488,"Ġnisqapas":2489,"Ġyachan":2490,"tera":2491,"bert":2492,"Ġqillqan":2493,"onz":2494,"ĠÃģ":2495,"Ġpuriy":2496,"War":2497,"dal":2498,"xi":2499,"ĠÃ±an":2500,"ĠRosa":2501,"Ġaycha":2502,"ĠVic":2503,"anqamanqa":2504,"ĠJeho":2505,"Es":2506,"oj":2507,"awantinsuyu":2508,"ĠOr":2509,"May":2510,"Qull":2511,"ff":2512,"chakuy":2513,"paqpas":2514,"munisipyu":2515,"WaÃ±usqa":2516,"gan":2517,"ĠPach":2518,"Ġkawsan":2519,"ĠChaymanta":2520,"Ġqhipa":2521,"IN":2522,"emp":2523,"ĠhuÃ±una":2524,"Tukuy":2525,"uritu":2526,"qayku":2527,"Inka":2528,"od":2529,"ĠYork":2530,"Ġjuk":2531,"KUNA":2532,"33":2533,"ĠMin":2534,"ĠNo":2535,"Parroquia":2536,"Ġkashan":2537,"Î¹":2538,"inchik":2539,"aqna":2540,"ĠQui":2541,"Ġtantanakuy":2542,"Ġkawsanku":2543,"ristiyanu":2544,"Ġkitillim":2545,"ĠUniversi":2546,"yi":2547,"Ġsimin":2548,"Ġpas":2549,"ĠHo":2550,"lio":2551,"Ġkanki":2552,"rqanku":2553,"kas":2554,"ĠYuraq":2555,"Warmikuna":2556,"olÃŃvar":2557,"ge":2558,"inqa":2559,"ampu":2560,"Ġpalama":2561,"ĠChawpi":2562,"per":2563,"Yaw":2564,"hua":2565,"sapa":2566,"Ġukhupi":2567,"Uru":2568,"Ġkath":2569,"Ġrikh":2570,"ĠHay":2571,"ĠRunallaqta":2572,"Lima":2573,"su":2574,"tanka":2575,"Ġyaya":2576,"ipi":2577,"à¦":2578,"taypi":2579,"tilla":2580,"amba":2581,"chikun":2582,"itiqaqa":2583,"ĠAymara":2584,"ĠSeÃ±or":2585,"av":2586,"Ïģ":2587,"Ġuku":2588,"Chinchay":2589,"Ġmusi":2590,"Ġwillakuy":2591,"Ġnisqamanta":2592,"Ġmisk":2593,"paqmi":2594,"Ġkathuliku":2595,"waq":2596,"Ð½":2597,"Ġsir":2598,"Ġhur":2599,"chiri":2600,"ĠLla":2601,"awk":2602,"âĢĿ":2603,"chiyta":2604,"pusapusqa":2605,"ell":2606,"Ġmillay":2607,"Ġpaykunata":2608,"Urin":2609,"uz":2610,"Ġllaki":2611,"ĠKastilla":2612,"ĠYana":2613,"ĠPapam":2614,"ush":2615,"Ġpukllay":2616,"ĠGarc":2617,"Ã±o":2618,"erro":2619,"naq":2620,"Ã±ul":2621,"Ġanti":2622,"Ġkachun":2623,"Kantun":2624,"omingo":2625,"AS":2626,"Quechua":2627,"win":2628,"urqa":2629,"45":2630,"aman":2631,"ten":2632,"ĠHina":2633,"Ġkanchu":2634,"Ġpiliku":2635,"lub":2636,"tiku":2637,"kunapiqa":2638,"Ġsunqu":2639,"Ðº":2640,"kam":2641,"eres":2642,"ĠEdu":2643,"[[":2644,"Ġyay":2645,"\";":2646,"akun":2647,"pana":2648,"Â°":2649,"Ġpata":2650,"ĠMartin":2651,"Ġwalltaypi":2652,"47":2653,"bre":2654,"ev":2655,"gna":2656,"Ġnisqata":2657,"Anta":2658,"ÙĦ":2659,"ung":2660,"Ġwaw":2661,"ĠAws":2662,"Ġche":2663,"Ġwasipi":2664,"ĠJesÃºs":2665,"ulo":2666,"ĠLimaq":2667,"tinmi":2668,"Ġ2007":2669,"Ġkaqta":2670,"rim":2671,"apu":2672,"allampa":2673,"99":2674,"Urqu":2675,"upaq":2676,"Ġhawan":2677,"ĠMayu":2678,"qui":2679,"ĠJu":2680,"Ġqhe":2681,"ĠInlatirra":2682,"Ġhucha":2683,"ĠRos":2684,"col":2685,"Ġkamachin":2686,"Ġukhun":2687,"IS":2688,"mpu":2689,"nu":2690,"Ġkanan":2691,"Ġ2009":2692,"van":2693,"ĠCamp":2694,"ĠLli":2695,"ĠWak":2696,"ĠTor":2697,"Ġlas":2698,"ĠParis":2699,"Ġtarinki":2700,"Ġsaywitu":2701,"chaspa":2702,"Ġchawpi":2703,"46":2704,"anam":2705,"ayqa":2706,"Ġmasi":2707,"ĠMen":2708,"Ġsuyukunata":2709,"ĠOs":2710,"Ġpachakwata":2711,"llisinchi":2712,"ninku":2713,"aria":2714,"ÃŃas":2715,"ĠApurimaq":2716,"CO":2717,"dre":2718,"run":2719,"anapaq":2720,"ĠQan":2721,"qarqan":2722,"paya":2723,"llana":2724,"tidu":2725,"rimanakuy":2726,"ĠRu":2727,"ĠJan":2728,"ĠMartÃŃn":2729,"ĠFernando":2730,"com":2731,"del":2732,"Ġwalla":2733,"Ġwatayuq":2734,"ĠGonz":2735,"ĠKaÃ±":2736,"tsi":2737,"Ġkaw":2738,"Ġhall":2739,"inakuy":2740,"Ġpruwinsyapipas":2741,"Ġ2010":2742,"Ġ187":2743,"ĠKar":2744,"ĠKunan":2745,"Ġpipas":2746,"Ġwillka":2747,"Ġuyarina":2748,"Ġca":2749,"Ġunan":2750,"inan":2751,"Ġhuklla":2752,"ĠLos":2753,"kunapim":2754,"Ġrimayninmi":2755,"Ġwayllu":2756,"ÏĦ":2757,"Ġuq":2758,"Ġwamp":2759,"ĠÃ±uÃ±uq":2760,"encia":2761,"umb":2762,"Ġumalliqninmi":2763,"Ã£":2764,"inta":2765,"Ġllap":2766,"kum":2767,"waya":2768,"aniel":2769,"Ġsonqo":2770,"Suyu":2771,"ich":2772,"qas":2773,"Ġnisqam":2774,"Ġsuyupipas":2775,"cocha":2776,"Katiguriyakuna":2777,"kamayuq":2778,"arani":2779,"ruz":2780,"dio":2781,"ugus":2782,",[":2783,"Yana":2784,"Ġrunata":2785,"âĢ¢":2786,"ĠPik":2787,"llanta":2788,"erqa":2789,"Ġjatun":2790,"UN":2791,"kura":2792,"Ġchayam":2793,"amar":2794,"inisuy":2795,"Ti":2796,"Ġrimaymi":2797,"Ġhamuq":2798,"Ġsh":2799,"ent":2800,"ĠDomingo":2801,"Ġuj":2802,"kunapipas":2803,"Ã©r":2804,"Ġhamut":2805,"ĠBibli":2806,"ĠGarcÃŃa":2807,"osqo":2808,"phrika":2809,"Ġimayay":2810,"Ġchaskisqa":2811,"avid":2812,"Ikwadur":2813,"aris":2814,"uro":2815,"urun":2816,"ato":2817,"ĠVilla":2818,"Ġrap":2819,"anu":2820,"kunas":2821,"ĠBeni":2822,"ĠIma":2823,"Ġtukurqan":2824,"Ġjunt":2825,"achi":2826,"nam":2827,"wra":2828,"ĠÃ±it":2829,"ĠHer":2830,"ĠInti":2831,"Ġ.&":2832,"Ġqhawa":2833,"Ġrak":2834,"ĠYupay":2835,"das":2836,"ĠĠ":2837,"asu":2838,"Ġqura":2839,"Ġrikun":2840,"ĠWall":2841,"Ġ2013":2842,"37":2843,"65":2844,"dos":2845,"gas":2846,"zi":2847,"ĠCrist":2848,"Amachasqa":2849,"09":2850,"simi":2851,"Ġtin":2852,"mon":2853,"Ġpor":2854,"ĠCal":2855,"atmi":2856,"ĠTar":2857,"wiya":2858,"Ġurin":2859,"Ġwakcha":2860,"ces":2861,"chari":2862,"ĠLon":2863,"est":2864,"ĠQh":2865,"Ġkaymantam":2866,"ichaka":2867,"Dios":2868,"44":2869,"Ġnisqawan":2870,"Ġsimim":2871,"umaq":2872,"Ġyanapa":2873,"kurqa":2874,"Ġmuru":2875,"atan":2876,"Llaqtakuna":2877,"ĠEstado":2878,"ĠHuwan":2879,"drÃ©s":2880,"Ġuyarinakunatapas":2881,"ot":2882,"tataq":2883,"unki":2884,"Ġpaqar":2885,"ĠIsa":2886,"ĠJohn":2887,"89":2888,"purqan":2889,"Ø§":2890,"anda":2891,"Ġkunka":2892,"ĠMer":2893,"erra":2894,"Chunka":2895,"inisuyla":2896,"val":2897,"Ð»":2898,"Ġsutiyuqqa":2899,"Ġkitip":2900,"2005":2901,"chasqan":2902,"alle":2903,"Ġchiqa":2904,"49":2905,"Ġus":2906,"manpas":2907,"Ġhar":2908,"Ġchura":2909,"ĠWiki":2910,"Ġcom":2911,"Ġhayk":2912,"ykichis":2913,"arro":2914,"ĠRus":2915,"ĠJa":2916,"Mo":2917,"Åį":2918,"one":2919,"ptinmi":2920,"yunmi":2921,"Lla":2922,"por":2923,"ĠLuritu":2924,"ales":2925,"elo":2926,"Ġtuktu":2927,"à¸":2928,"aro":2929,"tica":2930,"Ġrura":2931,"Ġmunisipyupiqa":2932,"ulli":2933,"ĠInter":2934,"aruchiri":2935,"ulunya":2936,"85":2937,"kta":2938,"ĠPablo":2939,"Ġpapa":2940,"Ġqay":2941,"ĠJuli":2942,"ĠGre":2943,"Ġpruwinsyapiqa":2944,"ĠwaÃ±uch":2945,"pez":2946,"raykuchus":2947,"En":2948,"ĠPra":2949,"Ġpaykuna":2950,"ampusqa":2951,"amilia":2952,"Â¿":2953,"Ġqol":2954,"ĠKaw":2955,"Ġtaw":2956,"Ã¡ndez":2957,"ĠDiosqa":2958,"olog":2959,"Pruwinsyapiqa":2960,"Ph":2961,"kash":2962,"ty":2963,"ĠAbya":2964,"achiq":2965,"Ġhallch":2966,"Kiti":2967,"psi":2968,"Ġwanku":2969,"Ġpusampusqa":2970,"2006":2971,"burg":2972,"ĠIwrupapi":2973,"Ġwawan":2974,"uqucha":2975,"kurqanku":2976,"Ni":2977,"Qusan":2978,"iqi":2979,"Ġjallp":2980,"ede":2981,"ib":2982,"Ġ'":2983,"ukun":2984,"uksi":2985,"ĠKu":2986,"Anti":2987,"Kimsa":2988,"Qh":2989,"Ġku":2990,"Ġkuru":2991,"ĠWas":2992,"ae":2993,"asco":2994,"chakuq":2995,"wana":2996,"ĠII":2997,"Ġ189":2998,"Piruwpi":2999,"fael":3000,"Wan":3001,"ĠAg":3002,"ĠHar":3003,"...":3004,"Con":3005,"Le":3006,"Musuq":3007,"oli":3008,"inapaq":3009,"kuykuna":3010,"Ġup":3011,"Ġimatapas":3012,"Ġtiksi":3013,"Ġllimphiq":3014,"Ġsaywachi":3015,"Ġkin":3016,"isqu":3017,"ĠMal":3018,"ĠVel":3019,"Ġruwasqa":3020,"Kantunkuna":3021,"41":3022,"yoq":3023,"tachus":3024,"Ġsuni":3025,"Ġkuska":3026,"Ġpinchi":3027,"tawa":3028,"Ġque":3029,"Ġunu":3030,"Saywitu":3031,"Gu":3032,"RÃŃo":3033,"ima":3034,"ney":3035,"Ġsas":3036,"rica":3037,"ĠLampa":3038,"ĠJose":3039,"ĠmanaÃ±a":3040,"ĠAna":3041,"uth":3042,"Ġqu":3043,"apay":3044,"ejo":3045,"ciones":3046,"bar":3047,"tÃ¡":3048,"Î»":3049,"yaku":3050,"ayuqmi":3051,"Ġwaqachiq":3052,"Ġkichwapi":3053,"48":3054,"ACH":3055,"runa":3056,"kuwan":3057,"ĠAqu":3058,"Ġpatapi":3059,"ĠRey":3060,"ĠTawantinsuyu":3061,"rec":3062,"guez":3063,"Ġ186":3064,"Ġanchata":3065,"ĠKunti":3066,"51":3067,"AR":3068,"net":3069,"ren":3070,"rina":3071,"aqi":3072,"ĠAphrika":3073,"Ġqam":3074,"ate":3075,"ĠâĢľ":3076,"Ġunq":3077,"vado":3078,"ĠPachantin":3079,"07":3080,"ichana":3081,"Ġpunchaw":3082,"Ġrin":3083,"Ġmuch":3084,"Ġapam":3085,"Ġsuyuqa":3086,"hili":3087,"imo":3088,"ĠLondon":3089,"Ñģ":3090,"Ġruwasqan":3091,"Ġrimaqniyuq":3092,"Luis":3093,"ĠIchaqa":3094,"ĠTitiqaqa":3095,"chayuq":3096,"Ġmanchay":3097,"Ġyachaykuna":3098,"lantilla":3099,"ĠpuÃ±":3100,"Ġhan":3101,"Ġkaypi":3102,"\"),":3103,"ĠâĢĺ":3104,"Ġ2008":3105,"Ġ2018":3106,"aykichis":3107,"Ġminist":3108,"aytu":3109,"ĠWillka":3110,"Ġqara":3111,"Ġwatapiqa":3112,"Ġqillqay":3113,"ĠFi":3114,"DE":3115,"kayali":3116,"Ġkawsaykuq":3117,"ĠWalla":3118,"Ã£o":3119,"llas":3120,"kap":3121,"Ġkachi":3122,"illan":3123,").&":3124,"wikipedia":3125,"ĠHayt":3126,"56":3127,"yana":3128,"Ã±as":3129,"ĠKuyu":3130,"Ġrunakunaman":3131,"panku":3132,"Ġyurakunap":3133,"Rimay":3134,"Ġpinchikilla":3135,"43":3136,"anpa":3137,"Ġpun":3138,"ĠKh":3139,"istritun":3140,"ĠGe":3141,"Ġtullu":3142,"arata":3143,"Ġhinan":3144,"Ġayllunmi":3145,"Ġrapra":3146,"06":3147,"cri":3148,"Ġhunu":3149,"ĠCan":3150,"ĠSanto":3151,"risya":3152,"Ins":3153,"egi":3154,"88":3155,"sut":3156,"Ġco":3157,"Ġllaqtaman":3158,"ĠPampa":3159,"Ġantanka":3160,"ananpaq":3161,"bal":3162,"Ïĥ":3163,"ĠSantu":3164,"Inti":3165,"Ġtaytakura":3166,"04":3167,"Punku":3168,"Ã§":3169,"riti":3170,"ĠApu":3171,"ruwayi":3172,"Ġtakichaqmi":3173,"Aw":3174,"oma":3175,"Ġno":3176,"espi":3177,"Ġliw":3178,"ĠYawyu":3179,"59":3180,"aypaq":3181,"inas":3182,"Ġwis":3183,"Ġwir":3184,"ĠBolÃŃvar":3185,"Ġtuta":3186,"ole":3187,"Ãºn":3188,"drÃŃ":3189,"dyu":3190,"asyun":3191,"Ġpatan":3192,"ĠBil":3193,"ĠTari":3194,"nia":3195,"rales":3196,"Ġkur":3197,"tima":3198,"Ġqelqa":3199,"Ġpakay":3200,"Chawpi":3201,"irin":3202,"landa":3203,"ĠAlf":3204,"pur":3205,"titu":3206,"Ġyurakuna":3207,"Ġrakin":3208,"57":3209,"bamba":3210,"ego":3211,"Ġhata":3212,"Ġdis":3213,"ille":3214,"Ġpirqa":3215,"unanpaq":3216,"muyun":3217,"je":3218,"qen":3219,"Ġkura":3220,"isuyu":3221,"Ġdistritun":3222,"ĠMun":3223,"Ġriq":3224,"ĠYacha":3225,"ĠAlberto":3226,"bro":3227,"dis":3228,"kupi":3229,"ĠCab":3230,"ones":3231,"piritu":3232,"ĠPuerto":3233,"Ġrikuy":3234,"Ġuchuy":3235,"Ġpayqa":3236,"ecta":3237,"Ġpusaqninqa":3238,"Ġkamayuqnin":3239,"avier":3240,"Ġwillkachasqa":3241,"drÃŃguez":3242,"au":3243,"mÃ¡n":3244,"suy":3245,"Â»":3246,"pak":3247,"Ġqun":3248,"Ġro":3249,"Ġranti":3250,"uqi":3251,"ĠChurin":3252,"Ġtakin":3253,"alli":3254,"hak":3255,"aytas":3256,"Ġquchapi":3257,"ĠSuyupi":3258,"ĠAyllu":3259,"Ġtiyachkan":3260,"Municipio":3261,"ninwan":3262,"awayi":3263,"anada":3264,"Ġsuyupiqa":3265,"uriy":3266,"Ġwasikuna":3267,"berg":3268,"ĠÂ«":3269,"Arhintina":3270,"ĠDepartamento":3271,"Jes":3272,"Ur":3273,"op":3274,"uqan":3275,"ĠPP":3276,"ers":3277,"Ġash":3278,"Ġinlish":3279,"Ġiskayniyuq":3280,"llinmi":3281,"Kitilli":3282,"ĠPur":3283,"ĠTaqna":3284,"ĠGran":3285,"Ã³ni":3286,"Ġrimana":3287,"Ġpaykunaqa":3288,"ĠNihun":3289,"Ġakllasqa":3290,"Ara":3291,"PA":3292,"of":3293,"ze":3294,"Ġispa":3295,"chez":3296,"Ġkristiyanu":3297,"wak":3298,"Ġchurin":3299,"achisqa":3300,"Ã³pez":3301,"ayninta":3302,"Ġ2006":3303,"ĠKilla":3304,"ĠhuÃ±u":3305,"Ġkamachikuy":3306,"musuq":3307,"Ġllak":3308,"ĠAf":3309,"ames":3310,"ĠLL":3311,"umun":3312,"Ġisqun":3313,"2001":3314,"umir":3315,"Mawk":3316,"Se":3317,"Ġwapsi":3318,"ĠLÃ³pez":3319,"2010":3320,"lores":3321,"Ġpaqta":3322,"Ġchull":3323,"ĠLor":3324,"ĠUSA":3325,"uchun":3326,"ikar":3327,"Ġlluqsi":3328,"ĠTiksi":3329,"Ġwayllukuq":3330,"03":3331,"78":3332,"aypi":3333,"isya":3334,"ĠKupa":3335,"anama":3336,"ĠTru":3337,"kamaqa":3338,"Ġ2016":3339,"ĠAntikuna":3340,"KA":3341,"familia":3342,"int":3343,"rup":3344,"Ġmachu":3345,"ĠWaruchiri":3346,"ĠNor":3347,"Ġmunisipyukuna":3348,"Ġ2005":3349,"https":3350,"nan":3351,"unapaq":3352,"kachi":3353,"tul":3354,"ĠPiluta":3355,"Ġqhawan":3356,"Ġyuraq":3357,"Ġhinaqa":3358,"ĠÃ±awi":3359,"ĠRamÃ³n":3360,"ĠÃĳawpa":3361,"ripi":3362,"kuyu":3363,"Ġhu":3364,"Ġayllumanta":3365,"Ġchaskin":3366,"ĠPhatmi":3367,"ĠPawlu":3368,"55":3369,"Ap":3370,"Ã±u":3371,"ĠQaqa":3372,"Ġkarqanku":3373,"ĠGen":3374,"ĠRodrÃŃguez":3375,"Ġ2014":3376,"ĠiÃ±uku":3377,"Ġkims":3378,"illiam":3379,"Ġllumpa":3380,"ĠPikchu":3381,"Ra":3382,"à¥":3383,"kumanta":3384,"tugal":3385,"Ġchhi":3386,"ĠCÃ¡":3387,"ĠMel":3388,"kunchu":3389,"vador":3390,"Ġyupaykuna":3391,"Carlos":3392,"fe":3393,"Ã¨":3394,"Äģ":3395,"Ùħ":3396,"rich":3397,"rida":3398,"uki":3399,"ĠPapa":3400,"ĠCom":3401,"Ġwatakunapi":3402,"ampam":3403,"ninmanta":3404,"ĠÃ±isqa":3405,"dol":3406,"Ġand":3407,"ĠWallapi":3408,"Chili":3409,"Wawa":3410,"lay":3411,"Ġill":3412,"ĠChar":3413,"chayta":3414,"deo":3415,"ĠKalla":3416,"wash":3417,"Ñĩ":3418,"ĠTa":3419,"lez":3420,"geles":3421,"ĠGonzÃ¡":3422,"08":3423,"Kar":3424,"sha":3425,"Ġci":3426,"Ġqarq":3427,"ĠTur":3428,"antasqa":3429,"Ġinka":3430,"gov":3431,"Ġrimanakuy":3432,"ng":3433,"pari":3434,"shi":3435,"ĠPro":3436,"ram":3437,"ĠAllpa":3438,"ĠSuy":3439,"ĠSara":3440,"ĠRÃŃo":3441,"ĠAndrÃ©s":3442,"Ari":3443,"can":3444,"ĠSay":3445,"ĠSim":3446,"Ġmill":3447,"aniyi":3448,"ĠRio":3449,"ĠwiÃ±an":3450,"qh":3451,"Ø¯":3452,"ary":3453,"Ġaliman":3454,"ĠWinisuyla":3455,"kunmi":3456,"lista":3457,"ĠAsyapi":3458,"ĠUniversidad":3459,"79":3460,"Hallka":3461,"bra":3462,"kuman":3463,"Ġhoq":3464,"llawa":3465,"llawan":3466,"Ġtay":3467,"Ġmanataq":3468,"ĠRimay":3469,"Manam":3470,"Ġchawpin":3471,"Bar":3472,"eq":3473,"kuptin":3474,"asqakuna":3475,"Ġchaki":3476,"2008":3477,"ĠMaria":3478,"Ġpalamam":3479,"02":3480,"Wanka":3481,"akunam":3482,"bel":3483,"rique":3484,"Ġaskha":3485,"caciÃ³n":3486,"ĠMachu":3487,"Santiago":3488,"Ġyachaqsi":3489,"ĠCantÃ³n":3490,"Ġmis":3491,"Ġiman":3492,"ĠBel":3493,"Mishiku":3494,"dun":3495,"inu":3496,"ares":3497,"ĠChunka":3498,"old":3499,"Ġjuch":3500,"Ġ2011":3501,"81":3502,"eru":3503,"fec":3504,"kaspa":3505,"pusqa":3506,"yo":3507,"yasqa":3508,"aqcha":3509,"asha":3510,"ĠWarmi":3511,"Ġpachamanta":3512,"tero":3513,"punim":3514,"con":3515,"ĠAll":3516,"Ġrunan":3517,"ĠPiwra":3518,"ĠDavid":3519,"kani":3520,"Ġinlisya":3521,"ĠRikch":3522,"ykita":3523,"Ġapayka":3524,"Ġrunaq":3525,"Ġdistritunmi":3526,"05":3527,"Îº":3528,"Ġæ":3529,"Ġklub":3530,"ĠSÃ¡n":3531,"illo":3532,"ĠTh":3533,"Ã±achu":3534,"kush":3535,"AQTA":3536,"Quchakuna":3537,"ES":3538,"gos":3539,"ron":3540,"ÙĬ":3541,"tum":3542,"ĠMos":3543,"ĠBern":3544,"ĠChak":3545,"Ġmira":3546,"ĠJesuspa":3547,"ĠSÃ¡nchez":3548,"Ġha":3549,"uqta":3550,"ĠGer":3551,"Ġmunisipyup":3552,"acul":3553,"Ġmallkiq":3554,"Ayakuchu":3555,")&":3556,"Dip":3557,"Lo":3558,"Mat":3559,"aqha":3560,"ĠPÃ©":3561,"chikuy":3562,"Ġyachaywasi":3563,"Ġiskaynintin":3564,"gnacio":3565,"timala":3566,"Cor":3567,"Pedro":3568,"raqmi":3569,"ĠAd":3570,"Ġchinchay":3571,"Ġmu":3572,"kunman":3573,"ĠYal":3574,"42":3575,"sen":3576,"tri":3577,"we":3578,"arina":3579,"tico":3580,"Ġmaki":3581,"Ġaj":3582,"hiku":3583,"atri":3584,"Ġkitillinmi":3585,"Ġunay":3586,"Tawa":3587,"chen":3588,"ayniy":3589,"ĠCruz":3590,"Ġ36":3591,"Ġimaraykuchus":3592,"ĠMarka":3593,"Wiki":3594,"Ġdistritupipas":3595,"Ġkusa":3596,"Departamento":3597,"Qar":3598,"ld":3599,"ante":3600,"ĠAugus":3601,"Ġdere":3602,"Ġsuyukunapi":3603,"ĠBra":3604,"Ġcas":3605,"Ġyachachisqan":3606,"Ġ2015":3607,"ĠYupan":3608,"Taki":3609,"mus":3610,"rata":3611,"paqqa":3612,"toria":3613,"ullaw":3614,"Ġkitillipi":3615,"uela":3616,"zoo":3617,"Ġqillqarqan":3618,"ĠRafael":3619,"acultad":3620,"arispa":3621,"mantan":3622,"ruru":3623,"ĠAt":3624,"ĠWat":3625,"Ġrurana":3626,"Ġninku":3627,"ĠIspaÃ±api":3628,"tinsi":3629,"Ġnirqa":3630,"Lliw":3631,"athuliku":3632,"simuyu":3633,"Ġsirk":3634,"86":3635,"Imay":3636,"Lag":3637,"gn":3638,"yap":3639,"Ġsimikuna":3640,"iste":3641,"Ġchayrayku":3642,"uchÃ¡":3643,"ĠFer":3644,"chinam":3645,"ĠChuqichaka":3646,"ĠwillaÃ±iq":3647,"ĠhunuchÃ¡":3648,"Yuraq":3649,"dy":3650,"qon":3651,"Ġor":3652,"pita":3653,"Ġwatan":3654,"chuku":3655,"araÃ±":3656,"Ġuyari":3657,"punin":3658,"tuyis":3659,"ĠIskaylla":3660,"Ġqolqe":3661,"ĠGonzÃ¡lez":3662,"Ġemp":3663,"Ã±ez":3664,"chikuq":3665,"ĠChanka":3666,"Chaymi":3667,"ĠwaÃ±urqan":3668,"Ġwich":3669,"Ġwayna":3670,"Ġachkha":3671,"Insecta":3672,"76":3673,"Ran":3674,"ctor":3675,"illaymi":3676,"ĠWal":3677,"Ġyachachin":3678,"empo":3679,"isqanmanta":3680,"kuyninpi":3681,"Ġninchikmi":3682,"Diptera":3683,"Ba":3684,"KI":3685,"Nobel":3686,"Pas":3687,"Pulitiku":3688,"Rur":3689,"__":3690,"akuq":3691,"kasqa":3692,"chata":3693,"qanchi":3694,"Ġmakin":3695,"Ġrik":3696,"onso":3697,"Ġkamarisqa":3698,"Ġhinaspan":3699,"phriti":3700,"Ġmikhun":3701,"ĠPasqu":3702,"ĠTephriti":3703,"ĠÃ±iqimantam":3704,"Kawsay":3705,"ĠTephritidae":3706,"Br":3707,"Je":3708,"No":3709,"Sh":3710,"aca":3711,"muyu":3712,"tral":3713,"kim":3714,"ĠCama":3715,"ĠIII":3716,"ĠChurinkuna":3717,"Ġthe":3718,"Ġjap":3719,"Ġkamachina":3720,"chincha":3721,"Ġmunasqan":3722,"Ġhampikamayuq":3723,"ĠYupaykuna":3724,"uwi":3725,"Îµ":3726,"yus":3727,"ĠCi":3728,"onal":3729,"cial":3730,"doza":3731,"Ġkamachisqan":3732,"Ġpulitikupas":3733,"189":3734,"edra":3735,"ĠJesusta":3736,"utata":3737,"âĨĳ":3738,"Ale":3739,"distrito":3740,"llaq":3741,"kaptin":3742,"Ġmayqin":3743,"ĠiÃ±u":3744,"ĠKitu":3745,"Ġapu":3746,"ĠPeru":3747,"UNA":3748,"ju":3749,"pen":3750,"ĠUruwayi":3751,"ĠBu":3752,"Ġmancha":3753,"Ġtiqsi":3754,"Ġsichus":3755,"ĠCarmen":3756,"Ġkapun":3757,"eiro":3758,"Ġliwrum":3759,"82":3760,"Aqu":3761,"Pal":3762,"anas":3763,"tillo":3764,"rikch":3765,"ĠLuk":3766,"oso":3767,"Ġkanmi":3768,"ĠJac":3769,"Ġyurakunam":3770,"Ġtukukun":3771,"ĠispaÃ±ul":3772,"Tar":3773,"eto":3774,"wara":3775,"unda":3776,"Ġsar":3777,"ĠSar":3778,"ĠKuraq":3779,"Ġpachaman":3780,"Ġhinata":3781,"ley":3782,"ĠChik":3783,"Ġrikusqa":3784,"ĠPayqa":3785,"Ġkaptinmi":3786,"Uy":3787,"uca":3788,"ĠMe":3789,"ĠQuta":3790,"quez":3791,"ĠTantanakuy":3792,"ĠGi":3793,"ĠGo":3794,"rera":3795,"Ġanka":3796,"ĠMamallaqta":3797,"Ġawqa":3798,"ĠPaykunaqa":3799,"Ġpatanpi":3800,"Pay":3801,"yupi":3802,"Ġda":3803,"illera":3804,"ĠKan":3805,"Ġwik":3806,"tol":3807,"ĠEd":3808,"umpi":3809,"Ġkaran":3810,"ĠMonte":3811,"ĠJehov":3812,"ĠMinist":3813,"52":3814,"IspaÃ±a":3815,"QA":3816,"ble":3817,"are":3818,"ĠBus":3819,"ĠWill":3820,"ĠIka":3821,"ĠChaq":3822,"tinqa":3823,"Ġth":3824,"ĠDis":3825,"itipi":3826,"andro":3827,"Ġmaqana":3828,"ĠFernÃ¡ndez":3829,"Ð¾Ð²":3830,".)":3831,"71":3832,"unqu":3833,"kata":3834,"ĠPuka":3835,"ĠPulunya":3836,"Ġat":3837,"ĠLuc":3838,"âĢ²":3839,"Ġimata":3840,"Ġrimaykunap":3841,"utura":3842,"umunista":3843,"54":3844,"Jorge":3845,"Pro":3846,"Yacha":3847,"grigu":3848,"Ġlloq":3849,"usillu":3850,"ĠShi":3851,"ĠYaku":3852,"payki":3853,"Ġlistritu":3854,"Ġpuka":3855,"Ġrimasqan":3856,"mpur":3857,"khu":3858,"mb":3859,"sin":3860,"tasa":3861,"ĠSaw":3862,"ĠHawa":3863,"ĠBal":3864,"Ġwatapim":3865,"ĠDaniel":3866,"Ã³r":3867,"duras":3868,"Ġhamun":3869,"ĠHinaspa":3870,"Ġchimpa":3871,"Qillqaq":3872,"Ġpilikulam":3873,"ĠPÃ©rez":3874,"ner":3875,"charqan":3876,"ĠPun":3877,"wanchik":3878,"ĠUkayali":3879,"Ġut":3880,"Ġjach":3881,"ĠiÃ±iq":3882,"eae":3883,"Ã±iqiq":3884,"Ġrunasimipi":3885,"Ġempres":3886,"Ìģ":3887,"intu":3888,"arabya":3889,"Ġkarum":3890,"Ġpukllaykuna":3891,"Chaymanta":3892,"ĠAswan":3893,"Ġchinka":3894,"ĠBrasilpi":3895,"Ġamachasqam":3896,"All":3897,"iki":3898,"llasqa":3899,"omo":3900,"Ġ2012":3901,"\"&":3902,".\"":3903,"87":3904,"sya":3905,"ĠmaÃ±":3906,"ĠManan":3907,"Ġqar":3908,"Ġchaylla":3909,"Ġmikhunchik":3910,"Ġwaqachina":3911,"ANA":3912,"Col":3913,"uÃ±a":3914,"wis":3915,"yku":3916,"iscal":3917,"Ġhukkunapas":3918,"Ġkitillipiqa":3919,"book":3920,"Ġ1990":3921,"ĠØ§":3922,"ĠhuÃ±unakuy":3923,"mpurasu":3924,"maqta":3925,"kunalla":3926,"rico":3927,"Ġkamaq":3928,"chirqa":3929,"ĠGra":3930,"lliqi":3931,"ĠMamanËĲ":3932,"egio":3933,"Ġchiri":3934,"Ġruranapaq":3935,"ĠHinan":3936,"Ġsasacha":3937,"ĠQaqatampu":3938,"bu":3939,"cay":3940,"upay":3941,"Ã¯":3942,"asapa":3943,"ĠSI":3944,"Ġrantin":3945,"ninsi":3946,"ĠHampi":3947,"tori":3948,"Ġaswanpas":3949,"ĠWil":3950,"alifor":3951,"2011":3952,"Ġpachantin":3953,"Ġwankurisqa":3954,"Mon":3955,"Yaku":3956,"Î¯":3957,"ÙĨ":3958,"Ġon":3959,"chkaq":3960,"ĠsuÃ±":3961,"ĠÃ±o":3962,"ĠUchuy":3963,"Ġkaymi":3964,"Ġkanchar":3965,"ĠVill":3966,"Aymara":3967,"ĠSalvador":3968,"ĠUnriya":3969,"ĠMendoza":3970,"Ġharawi":3971,"Hina":3972,"IV":3973,"Villa":3974,"Ġam":3975,"Ġmaman":3976,"apur":3977,"ĠLu":3978,"ĠLas":3979,"kuni":3980,"kamachiq":3981,"ĠYun":3982,"Ġpachata":3983,"ĠSuyukunayuq":3984,"Ġqhawari":3985,"Ġkuskan":3986,"Ġmunasqa":3987,"Ġchiqan":3988,"Ġwaqlli":3989,"ĠPrado":3990,"PI":3991,"Ġari":3992,"Ġsapaq":3993,"ĠPanama":3994,"ĠMas":3995,"Ġllaqtapipas":3996,"ĠVar":3997,"Ġ2003":3998,"ĠJehova":3999,"ĠVelasco":4000,"ĠYupanki":4001,"84":4002,"Mus":4003,"Sa":4004,"Uni":4005,"ves":4006,"vez":4007,"Î·":4008,"Ġqos":4009,"ĠPata":4010,"ĠMus":4011,"ninkunata":4012,"ore":4013,"ĠYunka":4014,"Ġkaqpi":4015,"kayu":4016,"ĠAnd":4017,"ĠÃ±awirin":4018,"abet":4019,"ĠIkwadurpi":4020,"ĠMishikupi":4021,"Kh":4022,"sk":4023,"ĠAk":4024,"paspa":4025,"end":4026,"ueb":4027,"ĠRiv":4028,"Ġsiwi":4029,"TaytanËĲ":4030,"Ġmask":4031,"Ġkallpanchaq":4032,"100":4033,"83":4034,"Ø±":4035,"anchaq":4036,"ayza":4037,"Ġper":4038,"Ã±aw":4039,"ĠCl":4040,"ĠKo":4041,"Ġkayqa":4042,"Ġkaykunatam":4043,"ĠBon":4044,"llapim":4045,"ĠDel":4046,"ĠYay":4047,"Ġrunakunapas":4048,"ĠMag":4049,"ĠBuliwyap":4050,"Ġsipi":4051,"Ġwarmin":4052,"Ġuyarispa":4053,"ĠSuwi":4054,"Ġshimi":4055,"ĠAphrikapi":4056,"72":4057,"96":4058,"ril":4059,"Ġna":4060,"ĠSap":4061,"ĠMunicipio":4062,"ĠHan":4063,"alo":4064,"Ġkawsayta":4065,"Ġmaypi":4066,"ĠWakin":4067,"ĠWatimala":4068,"uiz":4069,"Allin":4070,"Ġå":4071,"kichik":4072,"ĠAllin":4073,"iller":4074,"hir":4075,"ĠWari":4076,"ĠTom":4077,"Ġyawri":4078,"Ġsutipaq":4079,"ikh":4080,"Ġcar":4081,"ĠÂ¡":4082,"Ġkusituy":4083,"Bi":4084,"Har":4085,"ĠSus":4086,"ĠSte":4087,"Chunwa":4088,"Ġtiyay":4089,"Ġqallarispa":4090,"Ġwira":4091,"Ġinter":4092,"Ġparl":4093,"Ġ2017":4094,"rusal":4095,"ĠÃĳan":4096,"Manuel":4097,"risto":4098,"muyuntinpi":4099,"Sin":4100,"Å«":4101,"Ð´":4102,"anayuq":4103,"Ġwam":4104,"ĠPan":4105,"ĠPuma":4106,"rachina":4107,"ĠSam":4108,"ĠBen":4109,"ĠChincha":4110,"Char":4111,"Chak":4112,"Ġhinataq":4113,"Ġyar":4114,"ĠYawli":4115,"Francisco":4116,"books":4117,"',":4118,"AT":4119,"Ca":4120,"Sir":4121,"ikunayuqmi":4122,"Ġ000":4123,"tari":4124,"chanku":4125,"asaq":4126,"Ġsapan":4127,"Ġsuy":4128,"ĠPara":4129,"ĠAchka":4130,"ĠCu":4131,"ĠMu":4132,"âĢĺ":4133,"Ġtra":4134,"Ġthu":4135,"risqan":4136,"aqullu":4137,"Ġkhuya":4138,"Ġillanchay":4139,"Hanaq":4140,"Puka":4141,"Qu":4142,"anchar":4143,"tata":4144,"mal":4145,"arisqa":4146,"ĠÃ±oqa":4147,"Ġdistritup":4148,"ĠGal":4149,"allwa":4150,"ĠAncha":4151,"waylla":4152,"Ġyanapan":4153,"Ġkuyuchisqa":4154,"ĠLoayza":4155,"ĠWaras":4156,"ford":4157,"Huwan":4158,"Nevado":4159,"Brasil":4160,"Ä«":4161,"Ġhttps":4162,"uska":4163,"Ġpat":4164,"redo":4165,"Ã±aki":4166,"Ġtiempo":4167,"gton":4168,"etro":4169,"2007":4170,"ĠPaz":4171,"ĠPaul":4172,"ĠQillqap":4173,"Ġhurq":4174,"ĠLliw":4175,"uqiwa":4176,"Laguna":4177,"IÃ±":4178,"Qan":4179,"Qhi":4180,"ĠKimsa":4181,"Ġjanpi":4182,"Ġkutim":4183,"Ġpusaqmi":4184,")[":4185,"53":4186,"Cal":4187,"Mari":4188,"Na":4189,"Qispi":4190,"ban":4191,"puq":4192,"Î¼":4193,"Ġba":4194,"tachu":4195,"Ġrayku":4196,"ĠRom":4197,"Churi":4198,"Ġuralan":4199,"allan":4200,"chischu":4201,"Ġjam":4202,"Ġkamarirqan":4203,"ĠVer":4204,"ankuta":4205,"ajama":4206,"Pukyu":4207,";/":4208,"Am":4209,"Alimanya":4210,"Yaya":4211,"ji":4212,"inec":4213,"Ġqutu":4214,"mantaq":4215,"ure":4216,"ĠHa":4217,"ĠHuan":4218,"esi":4219,"insa":4220,"ĠIgnacio":4221,"Ġraw":4222,"aceae":4223,"Ġ40":4224,"Ġmitru":4225,"Ġkunti":4226,"Ġchaninchasqa":4227,"Ku":4228,"Po":4229,"Puerto":4230,"Wak":4231,"kana":4232,"Ġapaq":4233,"und":4234,"inmi":4235,"Ġsal":4236,"Ġpunku":4237,"Ġsumaqta":4238,"uyay":4239,"iqu":4240,"Ġyapa":4241,"haspa":4242,"ensis":4243,"ĠUrupampa":4244,"ĠPawqar":4245,"ĠHinallataq":4246,"ex":4247,"iri":4248,"Ġkuraq":4249,"kuru":4250,"Ġqon":4251,"Ġchink":4252,"ninchik":4253,"ĠUN":4254,"ĠJorge":4255,"ĠFeli":4256,"unkura":4257,"2014":4258,"Ġchaqru":4259,"akunata":4260,"ech":4261,"tz":4262,"yaq":4263,"kur":4264,"qanqa":4265,"Ġruntu":4266,"awri":4267,"âĢĶ":4268,"Ġkancha":4269,"Ġkaqqa":4270,"ĠAngeles":4271,"Ġimapas":4272,"Ġurma":4273,"Ġrimaykunaman":4274,"ĠUmalliqmi":4275,"ĠPastasa":4276,"ĠBoli":4277,"chinapaqmi":4278,"ĠQispiqanchi":4279,"ikrasqa":4280,"69":4281,"Awya":4282,"Bo":4283,"jas":4284,"Î¬":4285,"Ġà¤":4286,"isq":4287,"Ġser":4288,"Ġpanta":4289,"ĠPuru":4290,"Ġchiq":4291,"Ġriki":4292,"ĠJavier":4293,"Ġyupa":4294,"Ġkaqlla":4295,"ĠmanaÃ±am":4296,"Ġquchap":4297,"Ġrimarirqan":4298,"ĠParawayi":4299,"Ġliwru":4300,"Ġrurasqanmi":4301,"cua":4302,"ĠQanchi":4303,"ĠÃ±awirinaykipaq":4304,"58":4305,"Kal":4306,"Karu":4307,"ger":4308,"ichwa":4309,"tha":4310,"unman":4311,"ric":4312,"kuma":4313,"wanku":4314,"ĠCer":4315,"urqu":4316,"Ġmuksi":4317,"Ġrunakunaq":4318,"illas":4319,"ĠRegi":4320,"Ġqallawa":4321,"Ġtawan":4322,"Ġkaqwan":4323,"Ġmir":4324,"chinku":4325,"Ġsipas":4326,"Ġkikinpa":4327,"Ġpaqarichisqan":4328,"Ġpisilla":4329,"ĠKallawaya":4330,"Ge":4331,"niq":4332,"isapa":4333,"ĠSol":4334,"eng":4335,"ĠBan":4336,"ĠWawa":4337,"ĠTaki":4338,"ĠFre":4339,"2009":4340,"urqanku":4341,"ĠWaylas":4342,"amayo":4343,"ĠColegio":4344,"Quchapampa":4345,"kuyuchisqa":4346,"puna":4347,"Ïħ":4348,"tara":4349,"Ġnuw":4350,"awra":4351,"ĠUy":4352,"ĠBor":4353,"ĠChayta":4354,"Ã¡r":4355,"Ġmunisip":4356,"ims":4357,"uchqu":4358,"Ġrimaypi":4359,"Kaypi":4360,"Ġpartidu":4361,"lora":4362,"2002":4363,"Ġuywakunam":4364,"Ġkuyuy":4365,"by":4366,"sul":4367,"Ġ?":4368,"Ġpru":4369,"Ġllaqtaq":4370,"ĠLan":4371,"ĠLin":4372,"ĠWilliam":4373,"ĠGa":4374,"raykun":4375,"ĠLeon":4376,"Ġpichqayuq":4377,"VI":4378,"tru":4379,"zon":4380,"ÑĤ":4381,"ast":4382,"Ġsama":4383,"Ġwach":4384,"Ġquri":4385,"ĠAz":4386,"mantataq":4387,"Ġ100":4388,"ĠHen":4389,"ĠQue":4390,"ceae":4391,"Ġ2000":4392,"ward":4393,"Ġmunaspa":4394,"ĠRimanakuyninpi":4395,"Ġrikhuri":4396,"Ġtuktuyuq":4397,"ĠØ§ÙĦ":4398,"alifornia":4399,"61":4400,"AP":4401,"Ġlu":4402,"pina":4403,"chakun":4404,"Ġsupay":4405,"apuna":4406,"Ġllaqtapim":4407,"chim":4408,"ĠIlanda":4409,"lica":4410,"gui":4411,"Ġvon":4412,"Ġsanampam":4413,"ĠKulumbyapi":4414,"Kunanqa":4415,"avedra":4416,"ski":4417,"tupi":4418,"ĠkaÃ±":4419,"ust":4420,"ĠSer":4421,"siy":4422,"achin":4423,"Ġ2004":4424,"rini":4425,"Ġruwayta":4426,"WarmiËĲ":4427,"inkurachina":4428,"uju":4429,"ĠEduardo":4430,"Ġukhunpi":4431,"ĠGeneral":4432,"ER":4433,"Paw":4434,"Rumi":4435,"guna":4436,"ayniyki":4437,"ĠCO":4438,"ninman":4439,"ĠKata":4440,"ĠGab":4441,"achinku":4442,"Ġkaqtin":4443,"ĠDiosta":4444,"Ġwarma":4445,"ĠLouis":4446,"Ġtukri":4447,"ĠAwqaq":4448,"Ġpisqum":4449,"ĠBiblia":4450,"ĠMerce":4451,"akunapi":4452,"ler":4453,"mer":4454,"aqninkuna":4455,"uran":4456,"Ġrunakunapaq":4457,"Ġpachaqa":4458,"2004":4459,"ĠMorales":4460,"ĠLLAQTA":4461,"Cerro":4462,"RI":4463,"Sapa":4464,"bara":4465,"san":4466,"wu":4467,"Â¡":4468,"Ġllaqtata":4469,"llakta":4470,"wanpis":4471,"Ġdo":4472,"insi":4473,"ĠPichincha":4474,"ĠEli":4475,"ĠOl":4476,"Ġ1980":4477,"Ġchincha":4478,"Ariqipa":4479,"ĠYalap":4480,"CA":4481,"ktu":4482,"Ãł":4483,"Å¡":4484,"unmi":4485,"ismo":4486,"Ġsanan":4487,"wat":4488,"kuti":4489,"Ġquy":4490,"ĠHab":4491,"ĠBela":4492,"ĠChinchi":4493,"ĠTay":4494,"utina":4495,"Ġpulitikumi":4496,"ĠWamanqa":4497,"Ã©sar":4498,"ĠLoja":4499,"ĠUrasuyu":4500,"ĠAwstral":4501,"Ġquram":4502,"ĠIsabel":4503,"Tari":4504,"vel":4505,"Ġllulla":4506,"qanta":4507,"kita":4508,"ĠSach":4509,"ĠKal":4510,"esa":4511,"ĠFMI":4512,"gue":4513,"Ġqallariy":4514,"Ġruruchinapaqmi":4515,"celona":4516,"ĠRusiya":4517,"66":4518,"Ja":4519,"Los":4520,"xand":4521,"yim":4522,"ÙĪ":4523,"kiya":4524,"Ġdistrito":4525,"aphi":4526,"Ġthan":4527,"ĠâĢĶ":4528,"allta":4529,"ĠFo":4530,"spaÃ±ul":4531,"Ġ1989":4532,"ĠSaavedra":4533,"Î¿ÏĤ":4534,"Willka":4535,"Ġsa":4536,"tiya":4537,"Ġhaw":4538,"Ġhukniyuq":4539,"ĠChacha":4540,"kanu":4541,"Ġurqup":4542,"Ġ2002":4543,"ĠChichas":4544,"kunamantaqa":4545,"Ġnirqanku":4546,"Ġruranchik":4547,"ĠChilipi":4548,"Ġprof":4549,"John":4550,"Ġpukllaykamachiq":4551,"Ġwichq":4552,"Apu":4553,"dam":4554,"wasqa":4555,"Ñĥ":4556,"Ġnanay":4557,"tural":4558,"ĠCH":4559,"ĠSin":4560,"apun":4561,"ĠMil":4562,"ultura":4563,"enn":4564,"hiyu":4565,"lluma":4566,"ĠChaypi":4567,"ĠIndya":4568,"unidad":4569,"ĠMayutata":4570,"Miguel":4571,"ĠDisney":4572,"UY":4573,"kara":4574,"para":4575,"uns":4576,"Ġllamp":4577,"Ġndi":4578,"ĠAli":4579,"ĠSapa":4580,"aptin":4581,"mantapacha":4582,"ĠDo":4583,"omb":4584,"inda":4585,"lax":4586,"Ġraph":4587,"Ġkachkaptin":4588,"Ġatiq":4589,"Umalliq":4590,"Ġmusika":4591,"ChurinkunaËĲ":4592,"ĠAsway":4593,"ĠMariya":4594,"ĠVictoria":4595,"eresa":4596,"ĠMartÃŃnez":4597,"ĠGrego":4598,"ĠChaqllisinchi":4599,"Ġsiwikuna":4600,"75":4601,"Pampa":4602,"Sach":4603,"gs":4604,"hillu":4605,"Ġins":4606,"Ġpruwins":4607,"kachay":4608,"qantin":4609,"usco":4610,"ame":4611,"enzo":4612,"eswa":4613,"Ġdistritupiqa":4614,"Ġruk":4615,"lata":4616,"Ġura":4617,"ĠNina":4618,"nata":4619,"chkaptin":4620,"kunawanmi":4621,"Ġawqan":4622,"umas":4623,"Ġrimaqninmi":4624,"aqtinmi":4625,"Allpamanta":4626,"Ġachkiy":4627,"Chuqiyapu":4628,"ĠMelgar":4629,"Ġtaytan":4630,"Mal":4631,"Pe":4632,"Th":4633,"gon":4634,"pha":4635,"mann":4636,"Ġsimiqa":4637,"Ġ\")":4638,"ĠTamayo":4639,"sia":4640,"Ġchayman":4641,"Ã³s":4642,"allpa":4643,"kancha":4644,"imripi":4645,"Ġrimaynin":4646,"Ġyayku":4647,"ĠSuyukunap":4648,"Ġwaraniyi":4649,"ĠPartidu":4650,"ĠCord":4651,"ĠAfrika":4652,"iku":4653,"lluqucha":4654,"Ġnisqaman":4655,"wanchu":4656,"Ġrey":4657,"amin":4658,"amas":4659,"ĠVir":4660,"vich":4661,"Ġnitaq":4662,"Ġrikuspa":4663,"hintin":4664,"ĠQullqa":4665,"Ġrimaqkuna":4666,"Ġphaw":4667,"Ġkaptinqa":4668,"Ġpachakwatapi":4669,"ĠLampalliqi":4670,"Ab":4671,"IX":4672,"Killa":4673,"Vic":4674,"auna":4675,"gro":4676,"ks":4677,"wari":4678,"kupaq":4679,"Ġquchu":4680,"Ġmach":4681,"Ġwayuq":4682,"ĠBlan":4683,"ĠRip":4684,"orqa":4685,"Ã¡Ã±ez":4686,"dial":4687,"cado":4688,"Ġurqukuna":4689,"Ġmayup":4690,"Anqash":4691,"iovan":4692,"Ġbib":4693,"Ġyakupi":4694,"Ġ1984":4695,"ĠSichus":4696,"ristian":4697,"Ġllimphi":4698,"Ġsapsi":4699,"ĠShaw":4700,"nesi":4701,"ĠKamachiy":4702,"Yawar":4703,"dolfo":4704,"Ġmunisipyunmi":4705,"Achka":4706,"Hin":4707,"Qosqo":4708,"jandro":4709,"punku":4710,"qus":4711,"aqniyuq":4712,"ismu":4713,"araqmi":4714,"kul":4715,"ĠAsh":4716,"ĠSala":4717,"ĠaÃ±aki":4718,"ĠRumi":4719,"ores":4720,"ĠPir":4721,"kunatawan":4722,"ĠGuti":4723,"achaq":4724,"Ġkitipiqa":4725,"ĠChimpurasu":4726,"Antonio":4727,"Ġakllanakuy":4728,"ĠJaneiro":4729,"anza":4730,"rael":4731,"Ġchh":4732,"ĠKanada":4733,"ĠHis":4734,"Ġmiray":4735,"Chayrayku":4736,"MarÃŃa":4737,"ĠEducaciÃ³n":4738,"Ãºnde":4739,"EN":4740,"cen":4741,"ef":4742,"ikuna":4743,"irqan":4744,"vas":4745,"unpi":4746,"aqra":4747,"aqnin":4748,"Ġkill":4749,"waman":4750,"ĠPak":4751,"Ġsimiman":4752,"ĠJuk":4753,"ĠYan":4754,"Ġtukuspa":4755,"teri":4756,"kunamantapas":4757,"Ġwillan":4758,"Wikipidiya":4759,"Ġmikhuy":4760,"Jach":4761,"cus":4762,"ega":4763,"lat":4764,"mos":4765,"ĠÃĳaw":4766,"rima":4767,"Ġllaqtapas":4768,"wanka":4769,"Ġsuyumanta":4770,"ĠKamay":4771,"ess":4772,"Ã¡rez":4773,"Ġkawsari":4774,"Ġpacham":4775,"ĠEmi":4776,"Ġwidyu":4777,"ĠVen":4778,"Ãºl":4779,"Ġruwaynin":4780,"unchaypi":4781,"ĠSeb":4782,"Ġpaqarin":4783,"93":4784,"Aws":4785,"The":4786,"Was":4787,"gio":4788,"ker":4789,"yin":4790,"Ø¨":4791,"Ġz":4792,"chqantin":4793,"uncha":4794,"ĠMis":4795,"ĠLari":4796,"ĠUt":4797,"Ġkaykuna":4798,"ĠCha":4799,"dium":4800,"hawan":4801,"ransis":4802,"Ġyachachi":4803,"Ġpaypa":4804,"Ġatirqan":4805,"ĠJesuc":4806,"chinakuna":4807,"Ġ1993":4808,"Ġgra":4809,"Ġkasqanrayku":4810,"Ġatinchu":4811,"ĠJerusal":4812,"Ġphukuna":4813,"Ġtawantin":4814,"ĠBelaÃºnde":4815,"''":4816,"AM":4817,"Suy":4818,"cti":4819,"ukuna":4820,"Äĩ":4821,"à®":4822,"Ġkuy":4823,"Ġkawa":4824,"ĠPin":4825,"ĠÃ±uqa":4826,"illaqullu":4827,"ĠpaÃ±a":4828,"ĠKap":4829,"ĠKanta":4830,"ĠKathuliku":4831,"tino":4832,"Ġqillqaqsi":4833,"ÃŃos":4834,"iphiku":4835,"ĠNue":4836,"Ġmunani":4837,"chikpaq":4838,"panmi":4839,"ĠManam":4840,"uwisa":4841,"doro":4842,"ĠAlimanyapi":4843,"ĠKawsay":4844,"olognesi":4845,"tawallpa":4846,"Wawakuna":4847,"Wankawillka":4848,"Ġderech":4849,"ĠSebasti":4850,"500":4851,"Os":4852,"Yura":4853,"amanta":4854,"ella":4855,"rispa":4856,"uqayku":4857,"Î³":4858,"llina":4859,"orld":4860,"Ġyaw":4861,"ĠAnkash":4862,"ĠLlapan":4863,"Ġtakiqsi":4864,"Ġwatakamam":4865,"Ġsutinqa":4866,"Ġ1991":4867,"Ġsaqra":4868,"Munisipyukuna":4869,"Ġrikhurin":4870,"68":4871,"Ger":4872,"Pusaq":4873,"kisi":4874,"ÏĮ":4875,"Ð¼":4876,"lle":4877,"usiya":4878,"Ġrirqan":4879,"ĠTum":4880,"ĠPiruwanu":4881,"Ġ33":4882,"Ġlaq":4883,"ernando":4884,"Ġuywam":4885,"Amarumayu":4886,"Ġukucha":4887,"Ġkawpaqpas":4888,"ĠVargas":4889,"Ġkusituymi":4890,"kisiwi":4891,"64":4892,"oy":4893,"pos":4894,"inc":4895,"paqa":4896,"Ġwaman":4897,"ĠAgu":4898,"Ġres":4899,"ĠQosqo":4900,"ĠJr":4901,"Ġruq":4902,"Ã±ataq":4903,"video":4904,"chinqa":4905,"ĠIndi":4906,"Kamarisqa":4907,"Ġwawakuna":4908,"mpapura":4909,"ĠEnrique":4910,"ĠBerlin":4911,"crita":4912,"unkurawa":4913,"yaspa":4914,"Ġ+":4915,"llqa":4916,"unchu":4917,"Ġllut":4918,"chaki":4919,"ĠLar":4920,"lad":4921,"Ġuya":4922,"ĠNasyun":4923,"Ġwikch":4924,"Ġjay":4925,"Ġhinatam":4926,"ĠChayqa":4927,"ĠOli":4928,"kunamantam":4929,"kunapaqqa":4930,"umipampa":4931,"ĠApulu":4932,"ĠKunanqa":4933,"Ġhawanpi":4934,"Ã©rrez":4935,"Ġunqusqa":4936,"ĠPurtugal":4937,"Ġklubmi":4938,"Ã³rdo":4939,"ĠYunkay":4940,"AW":4941,"Fue":4942,"Mis":4943,"Ru":4944,"ide":4945,"Ġá":4946,"Ġtaq":4947,"anq":4948,"Ġllall":4949,"Ġqespi":4950,"ĠPunta":4951,"ĠCons":4952,"ambo":4953,"amora":4954,"ĠMuri":4955,"ono":4956,"ĠTampu":4957,"Ġtapuy":4958,"llanku":4959,"uts":4960,"cep":4961,"Ġaylluman":4962,"Ġkusisqa":4963,"Alf":4964,"Ġyachaqpas":4965,"Ð¸Ñĩ":4966,"dencia":4967,"Ġruwakun":4968,"ĠAgus":4969,"ĠGrande":4970,"iovanni":4971,"Juli":4972,"Mag":4973,"So":4974,"dan":4975,"parqan":4976,"ãĥ":4977,"ankuna":4978,"ĠCara":4979,"urani":4980,"anqakunata":4981,"ĠThe":4982,"Ġmanas":4983,"ĠJatun":4984,"ĠFC":4985,"umin":4986,"Ġ34":4987,"Ġyachaykunata":4988,"Ġpayman":4989,"Ġfacultad":4990,"ĠJesustaq":4991,"ĠTiksimuyu":4992,"Ġpilikula":4993,"Ġcheqaq":4994,"Ġchiqap":4995,"67":4996,"VII":4997,"],":4998,"Ġana":4999,"kunachus":5000,"Ġpre":5001,"Ġnuna":5002,"ĠCen":5003,"Ġkayninta":5004,"Ġyachar":5005,"eld":5006,"Ġmanchari":5007,"Chincha":5008,"Ġuman":5009,"Ġkaqkunata":5010,"ĠAng":5011,"ĠEr":5012,"Ġ32":5013,"wiri":5014,"Ġish":5015,"ĠWaman":5016,"Ġ1992":5017,"uwaq":5018,"Ġ1970":5019,"chard":5020,"Ġchaqllisinchi":5021,"tionary":5022,"ĠwillaÃ±iqi":5023,"CI":5024,"SU":5025,"dona":5026,"ichu":5027,"Ġani":5028,"unay":5029,"Ġkinsa":5030,"Ġsasa":5031,"kucha":5032,"Ġhuq":5033,"tukuna":5034,"ĠPu":5035,"erva":5036,"ĠKur":5037,"ĠWir":5038,"Ġqaqa":5039,"kuychis":5040,"Ġallwiya":5041,"iko":5042,"llantaq":5043,"Ġwasiman":5044,"uwli":5045,"ĠWayas":5046,"Ġ1969":5047,"Ġsaphi":5048,"Buliwyapi":5049,"Suyukuna":5050,"amarca":5051,"Ġkinray":5052,"ĠsuÃ±aytas":5053,"abeth":5054,"\":":5055,"92":5056,"bol":5057,"din":5058,"gh":5059,"st":5060,"siq":5061,"Ġ×":5062,"asllapi":5063,"aray":5064,"arte":5065,"kamaq":5066,"Ġquechua":5067,"ĠPuna":5068,"ĠPon":5069,"urwi":5070,"ulgar":5071,"Ġkiki":5072,"esta":5073,"ĠRuiz":5074,"ĠChan":5075,"ĠChÃ¡":5076,"ĠChanta":5077,"Ġkaqnin":5078,"ĠFe":5079,"ania":5080,"niyuqmi":5081,"llataqmi":5082,"ĠRunasimi":5083,"ĠHuay":5084,"ĠantaÃ±iqiq":5085,"ĠElena":5086,"wasin":5087,"ĠVicente":5088,"ĠQuij":5089,"Kurku":5090,"tter":5091,"ÏĢ":5092,"Ġaq":5093,"chhu":5094,"mania":5095,"Ġnan":5096,"Ġsimip":5097,"Ġme":5098,"Ġad":5099,"ĠBos":5100,"ĠRes":5101,"ĠTupaq":5102,"yanmi":5103,"Ġpachapiqa":5104,"ĠMarcos":5105,"Ġyachayta":5106,"Ġwarmim":5107,"Ġmusph":5108,"ĠPaulo":5109,"Ġchaymantataq":5110,"ĠQillqaq":5111,"arinapaq":5112,"tisuyu":5113,"Ġdescrita":5114,"uqanchik":5115,"ikarawa":5116,"ĠTiksimuyuntinpi":5117,"Cas":5118,"Iman":5119,"Plantilla":5120,"ikan":5121,"yl":5122,"unkichis":5123,"Ġnisqakuna":5124,"ĠCata":5125,"ĠHi":5126,"ĠHur":5127,"ĠTawa":5128,"ĠTeresa":5129,"lik":5130,"kunatas":5131,"ÃŃctor":5132,"Ġaslla":5133,"Ġkaqkuna":5134,"Ġtus":5135,"ikray":5136,"uÃ±u":5137,"ĠInlisya":5138,"utupak":5139,"ĠLaguna":5140,"ĠAsya":5141,"ĠManu":5142,"Mamallaqta":5143,"pusqan":5144,"Ġreqs":5145,"erio":5146,"Ġruranku":5147,"ĠwiÃ±aypaq":5148,"Ġpinyin":5149,"mpiku":5150,"ĠQarwa":5151,"dalena":5152,"ĠInterna":5153,"ĠGutiÃ©rrez":5154,"utupaksi":5155,"Kus":5156,"Tuk":5157,"sam":5158,"Ġgu":5159,"tiyki":5160,"llachu":5161,"tudi":5162,"ĠPutina":5163,"entes":5164,"ĠHam":5165,"osqa":5166,"Ġsutiyuqpa":5167,"Ã¡y":5168,"rea":5169,"Ġallinmi":5170,"ĠWit":5171,"asqanta":5172,"Ġpusapuna":5173,"Ġ1996":5174,"Ġ1998":5175,"Ġsunturmi":5176,"Ġsonqon":5177,"HK":5178,"Per":5179,"Tur":5180,"sta":5181,"Ġsuma":5182,"Ġchuk":5183,"ĠMuqiwa":5184,"iqtay":5185,"eros":5186,"ĠHanaq":5187,"osta":5188,"Ġkaqpas":5189,"Ġmunisipyum":5190,"achaykamay":5191,"Ġparkipi":5192,"itis":5193,"Ġyachaqmi":5194,"Ġmasin":5195,"ĠPasiphiku":5196,"Ġsuqtayuq":5197,"ĠMateo":5198,"Ġqhepa":5199,"Ġwiraqucha":5200,"ĠChÃ¡vez":5201,"ceres":5202,"wn":5203,"kuchkan":5204,"Ġwaka":5205,"ĠAran":5206,"ĠSir":5207,"mantawan":5208,"iqta":5209,"Ġpachay":5210,"âĢ³":5211,"Ã³m":5212,"kunapis":5213,"rey":5214,"Ġallinchu":5215,"Ġrurun":5216,"ĠâĢĵÂ¿":5217,"Ġ1982":5218,"ĠGuz":5219,"ĠBarcelona":5220,"psyun":5221,"Llapa":5222,"qillqa":5223,"rana":5224,"rom":5225,"wo":5226,"ÅĤ":5227,"Ġpanpa":5228,"tiriya":5229,"Ġhul":5230,"Ġnerqa":5231,"Ġsuya":5232,"Ġmamay":5233,"ĠSajama":5234,"Ġdyus":5235,"ĠMir":5236,"ĠWanta":5237,"ĠIr":5238,"ĠTu":5239,"ĠJames":5240,"ĠWiÃ±ay":5241,"Ġ50":5242,"ĠDirec":5243,"2000":5244,"ĠInkakunap":5245,"ĠWankayu":5246,"ĠCastro":5247,"ĠLlapa":5248,"Ġministru":5249,"Ġkurkun":5250,")]]":5251,"IY":5252,"Kashamarka":5253,"Yan":5254,"ÛĮ":5255,"unakuy":5256,"Ġchan":5257,"Ġchuray":5258,"Ġmat":5259,"apuni":5260,"Ġmuy":5261,"Ġrunaman":5262,"ĠFlores":5263,"ĠLiber":5264,"Ġrimayta":5265,"ĠÃ±awpaqta":5266,"Chik":5267,"Ġyachaqkuna":5268,"Ġ1981":5269,"ĠWayna":5270,"Ġkunsul":5271,"ĠPeter":5272,"tsik":5273,"ashapampa":5274,"Universi":5275,"73":5276,"Huch":5277,"id":5278,"ymanta":5279,"ington":5280,"Ġshu":5281,"paka":5282,"onia":5283,"away":5284,"ĠBolognesi":5285,"ĠChina":5286,"Ġkanchik":5287,"Ġrimaykunapi":5288,"à¤¾":5289,"Ġriqsichi":5290,"Ġraphiyuq":5291,"ĠCampos":5292,"barra":5293,"ĠLorenzo":5294,"ĠTomÃ¡s":5295,"laxia":5296,"Daniel":5297,"cor":5298,"ete":5299,"iyuq":5300,"Äį":5301,"tivo":5302,"Ġsuwa":5303,"Ġkaj":5304,"wanki":5305,"raciÃ³n":5306,"ĠAta":5307,"ĠAliman":5308,"ique":5309,"ĠImay":5310,"sipsyun":5311,"Ġtan":5312,"dic":5313,"Ġmunaq":5314,"ĠEdi":5315,"Ġhatunmi":5316,"ĠSantos":5317,"Ġuray":5318,"Ġwarmikuna":5319,"ĠKaylluma":5320,"inidi":5321,"Ġyanapay":5322,"tsu":5323,"trun":5324,"ĠwaÃ±uchirqan":5325,"marca":5326,"ĠÃģn":5327,"ĠJoseph":5328,"ĠTarija":5329,"illermo":5330,"74":5331,"98":5332,"Hunin":5333,"Tiya":5334,"cana":5335,"gin":5336,"Ð¹":5337,"Ġé":5338,"chk":5339,"isha":5340,"kupas":5341,"chakuna":5342,"pakuy":5343,"Ã±os":5344,"Ġwatu":5345,"qana":5346,"raf":5347,"apari":5348,"ony":5349,"onel":5350,"Ġwari":5351,"limpiku":5352,"arimuy":5353,"Ġtarin":5354,"lau":5355,"kuqkuna":5356,"vil":5357,"Ġcre":5358,"akisqa":5359,"KaÃ±":5360,"uter":5361,"Pichqa":5362,"antes":5363,"Ġruwaq":5364,"Ġfi":5365,"ĠIsrael":5366,"Ġchakrapura":5367,"kaqpi":5368,"Ġmuyuriq":5369,"ĠArhintinapi":5370,"ĠphiÃ±a":5371,"Ġchimlas":5372,"Ġhatari":5373,"ĠKillapampa":5374,"apuruna":5375,"Ġraphin":5376,"91":5377,"Italya":5378,"ON":5379,"RA":5380,"Re":5381,"TC":5382,"Vi":5383,"VIII":5384,"rÃ©":5385,"Ã´":5386,"á»":5387,"wam":5388,"Ġllik":5389,"ĠPus":5390,"ĠCerro":5391,"Ġatuq":5392,"alu":5393,"ĠRaymi":5394,"achus":5395,"Ġmiyu":5396,"Ġpachap":5397,"Ġqallarin":5398,"ĠMary":5399,"Ġmayuman":5400,"Ġpaykunaman":5401,"Ġwasichay":5402,"Ġqallarikuy":5403,"Ġmunakuy":5404,"ĠhuÃ±usqa":5405,"1969":5406,"Ã©nez":5407,"ĠMoreno":5408,"colÃ¡s":5409,"Ġrock":5410,"Jean":5411,"cuador":5412,"inidiktu":5413,".-":5414,"IC":5415,"qhay":5416,"qallu":5417,"chuq":5418,"Ġkuch":5419,"tien":5420,"riel":5421,"ĠCat":5422,"ĠTata":5423,"ĠJos":5424,"Ġchayri":5425,"ĠYACH":5426,"Ġruph":5427,"Ġrunakunawan":5428,"ĠFor":5429,"Ġkamari":5430,"econ":5431,"1990":5432,"Ġ1945":5433,"ĠLeÃ³n":5434,"ĠSaint":5435,"Kichwa":5436,"Ġuquq":5437,"ĠKuba":5438,"ĠAugusto":5439,"Ransiya":5440,"ĠBuena":5441,"awriqucha":5442,"ĠRipuwli":5443,"Gen":5444,"Luk":5445,"Wasi":5446,"XI":5447,"payuq":5448,"qhichwa":5449,"Ã¢":5450,"Ã¸":5451,"ĠÄ":5452,"qara":5453,"chanta":5454,"aypa":5455,"istu":5456,"ariq":5457,"uspi":5458,"ĠSab":5459,"ĠMur":5460,"ĠHe":5461,"ĠQanchis":5462,"ĠChe":5463,"Ġchaywan":5464,"Ġchayna":5465,"ĠYa":5466,"chikta":5467,"olina":5468,"Ġmayqen":5469,"ĠInkisiwi":5470,"antÃ¡":5471,"ĠAmaru":5472,"ucre":5473,"Ġyanapaq":5474,"filaxia":5475,"Ġmallki":5476,"ĠWikipedia":5477,"oft":5478,"ESCO":5479,"Ġutqay":5480,"ĠBolivia":5481,"Por":5482,"Sar":5483,"cardo":5484,"hka":5485,"saq":5486,"ville":5487,"Ġkuna":5488,"Ġsac":5489,"Ġsiw":5490,"wakuna":5491,"llamanta":5492,"ĠMaraÃ±":5493,"eras":5494,"Ġkitara":5495,"isto":5496,"ĠTunkurawa":5497,"Ġdistritukuna":5498,"ĠJim":5499,"ĠJarani":5500,"Ġrump":5501,"kaypi":5502,"llanmi":5503,"ĠRobert":5504,"lorida":5505,"Ġ1994":5506,"Ġchiki":5507,"Ġphuyu":5508,"Ġimaynatachus":5509,"ĠKaÃ±ari":5510,"Ġtawayuq":5511,"ueblo":5512,"%-":5513,"MAN":5514,"ew":5515,"unchis":5516,"Ġsis":5517,"Ġllaqtay":5518,"ĠSch":5519,"ĠSina":5520,"Ġmink":5521,"uqyay":5522,"ninpa":5523,"espa":5524,"ester":5525,"hika":5526,"ĠIb":5527,"kunatataq":5528,"ĠGrisya":5529,"umu":5530,"tein":5531,"wiy":5532,"Kaypipas":5533,"utk":5534,"ptinqa":5535,"ĠDiosmanta":5536,"ĠAlto":5537,"Ġsutinta":5538,"Ġtarikun":5539,"Ġ1999":5540,"Walla":5541,"1980":5542,"Ġ1947":5543,"Kitillikuna":5544,"Ġkawallu":5545,"ĠGuzmÃ¡n":5546,"SHK":5547,"To":5548,"US":5549,"Yupay":5550,"dro":5551,"ly":5552,"lvar":5553,"qip":5554,"ux":5555,"kunarayku":5556,"ĠPunku":5557,"ĠÃ±uk":5558,"ĠChaku":5559,"ĠPid":5560,"\").":5561,"Ġmicha":5562,"ĠFuj":5563,"Ġhinachu":5564,"Ġlar":5565,"ĠOc":5566,"Ġparay":5567,"zaciÃ³n":5568,"Ġ[[":5569,"Ġ1986":5570,"Ġkamachiyta":5571,"ĠFranz":5572,"Ġsinchita":5573,"Ġreqsi":5574,"Ġwakichina":5575,"Ġcontra":5576,"ĠReyes":5577,"ĠGeorge":5578,"SeÃ±or":5579,"ĠSIMI":5580,"ĠSuwit":5581,"Ġchaqrusqa":5582,"ĠMurillo":5583,"95":5584,"BolÃŃvar":5585,"Kis":5586,"Papa":5587,"kis":5588,"layu":5589,"Ãī":5590,"à°":5591,"aque":5592,"rigo":5593,"Ġwati":5594,"kakuna":5595,"ĠPala":5596,"ĠCalifornia":5597,"Ġab":5598,"chilla":5599,"ĠHel":5600,"ĠQuri":5601,"ĠQullu":5602,"chura":5603,"âĢ¦":5604,"ĠTumipampa":5605,"Ġyachana":5606,"ĠDu":5607,"kanuta":5608,"Ġpachamama":5609,"Ġhinalla":5610,"Ġle":5611,"gotÃ¡":5612,"ĠOre":5613,"Ġkawsaypi":5614,"Ancha":5615,"Ġfor":5616,"ĠQullqi":5617,"reso":5618,"2012":5619,"Ġriqsinchik":5620,"ĠMontevideo":5621,"wasinyuq":5622,"Ġpachaykamay":5623,"63":5624,"77":5625,"AKA":5626,"Punu":5627,"Pisqu":5628,"ote":5629,"aqpas":5630,"ĠpolÃŃ":5631,"kuway":5632,"ĠPulitiku":5633,"istan":5634,"ĠHuch":5635,"ĠQU":5636,"ĠQhi":5637,"ĠChuku":5638,"Ġts":5639,"toc":5640,"Ġpisiya":5641,"reta":5642,"chikpi":5643,"hawana":5644,"ĠÃ±awin":5645,"aniya":5646,"itim":5647,"ĠMicha":5648,"niyoj":5649,"Ġ1973":5650,"Ġ1974":5651,"Ġ1975":5652,"Ġkunankama":5653,"Ġruruchiq":5654,"ĠJean":5655,"Ã¼n":5656,"ĠRosario":5657,"Diospa":5658,"allivi":5659,"Kitillipiqa":5660,"Ġchawpinpi":5661,"Ġmaypichus":5662,"Sara":5663,"bul":5664,"Ġanqa":5665,"aquta":5666,"Ġsim":5667,"pal":5668,"rupi":5669,"apra":5670,"ĠKuntur":5671,"Ġwayta":5672,"pasqan":5673,"ĠHern":5674,"Ġqata":5675,"chupa":5676,"Ġte":5677,"ĠDÃŃa":5678,"kaya":5679,"ump":5680,"oly":5681,"Ġkachkaq":5682,"kusya":5683,"ĠDiosmi":5684,"kunawanpas":5685,"Alberto":5686,"ĠAntawaylla":5687,"ĠJuana":5688,"Qusankuna":5689,"Ġkutin":5690,"Wanuku":5691,"Ġkimsayuq":5692,"ĠWinisuylapi":5693,"istema":5694,"Ġsasachakuy":5695,"ĠLariqaqa":5696,"ĠSebastiÃ¡n":5697,"Kur":5698,"Llu":5699,"XII":5700,"cra":5701,"puk":5702,"wt":5703,"wasqan":5704,"zÃ³n":5705,"Ïī":5706,"anman":5707,"mad":5708,"Ġphin":5709,"chaku":5710,"Ġnoqa":5711,"Ġnisqatam":5712,"onta":5713,"erdo":5714,"enta":5715,"esqa":5716,"ĠBallivi":5717,"ĠIcha":5718,"ĠPil":5719,"antaqa":5720,"Ġayqi":5721,"allo":5722,"ime":5723,"iktionary":5724,"tem":5725,"Ġkamachisqa":5726,"lemen":5727,"gado":5728,"wikibooks":5729,"Ġrunasimita":5730,"Ġex":5731,"Ġsapanka":5732,"Ġkallpanchay":5733,"ĠĠĠĠ":5734,"ĠSusya":5735,"ĠShawsha":5736,"Ġkunsulam":5737,"Manan":5738,"Or":5739,"Qanchis":5740,"Qullaw":5741,"ling":5742,"ov":5743,"Ð³":5744,"Ġkuntur":5745,"kunatan":5746,"Ġpl":5747,"ruma":5748,"ĠPat":5749,"ĠPachaykamay":5750,"Ġnisqapa":5751,"ĠSiw":5752,"chiku":5753,"Ġwin":5754,"hil":5755,"ĠIsi":5756,"kunka":5757,"Ġkankichis":5758,"Che":5759,"achan":5760,"irqa":5761,"iris":5762,"ĠÃ±awch":5763,"panpa":5764,"Ġyanqa":5765,"Ġcuer":5766,"ashington":5767,"Ġqhichwapi":5768,"kuska":5769,"ĠRob":5770,"aba":5771,"kunamanmi":5772,"obre":5773,"ĠGuad":5774,"1982":5775,"1989":5776,"Ġ1949":5777,"Ãĳawpaqnin":5778,"ĠPachamama":5779,"anchispaq":5780,"llantay":5781,"ĠJulio":5782,"Ġchullunku":5783,"Lliwmanta":5784,"62":5785,"Be":5786,"Gi":5787,"Quyllur":5788,"Tawantinsuyu":5789,"Uralan":5790,"akin":5791,"bir":5792,"phu":5793,"tel":5794,"lluy":5795,"unch":5796,"waka":5797,"tic":5798,"rit":5799,"ĠScho":5800,"ĠKutupaksi":5801,"ĠBro":5802,"ĠBene":5803,"ĠWorld":5804,"ĠRÃŃos":5805,"Ġqachu":5806,"torio":5807,"Ã©c":5808,"Ġpachataq":5809,"umpa":5810,"ĠVall":5811,"luma":5812,"Ġchaqallu":5813,"ĠManqu":5814,"Ġkamachirqan":5815,"Ġsunqun":5816,"ustarika":5817,"ĠYawar":5818,"Qullqi":5819,"ĠTorres":5820,"ĠCÃ¡ceres":5821,"ATUN":5822,"ĠAgustÃŃn":5823,"UA":5824,"Wal":5825,"ire":5826,"nawa":5827,"ye":5828,"ĠÅ":5829,"Ã±in":5830,"ĠCÃ©sar":5831,"ninchis":5832,"Ġrunapas":5833,"erre":5834,"Ġpaka":5835,"ĠKas":5836,"ĠKara":5837,"ĠKura":5838,"Ġsimipipas":5839,"Ġrunakunamanta":5840,"nica":5841,"tani":5842,"ikra":5843,"chikmi":5844,"ĠMacha":5845,"Kayqa":5846,"ĠhayÃ±i":5847,"utista":5848,"Ġyachachisqa":5849,"Ġbar":5850,"Ġmunarqan":5851,"chkanku":5852,"Ġ1979":5853,"Ġ1962":5854,"Ġ1964":5855,"ÐµÐ²":5856,"ĠUNESCO":5857,"ĠRegiÃ³n":5858,"ĠApulupampa":5859,"Ã³rdoba":5860,"urwiga":5861,"ĠQuijarro":5862,"Ed":5863,"Us":5864,"iro":5865,"supi":5866,"vos":5867,"vara":5868,"warqan":5869,"Ø³":5870,"qaku":5871,"chanqa":5872,"Ġkis":5873,"Ġkacham":5874,"ĠPall":5875,"ĠPhili":5876,"ĠMuru":5877,"ĠKuta":5878,"ĠWama":5879,"Ġqari":5880,"âĢľ":5881,"Ġyall":5882,"ĠGiovanni":5883,"ĠYo":5884,"Ġ1930":5885,"Ġ1928":5886,"Ġkawsa":5887,"allin":5888,"ĠNapu":5889,"chiqkuna":5890,"Ġkachari":5891,"Ġimayn":5892,"ankaru":5893,"Ġapay":5894,"homas":5895,"1973":5896,"ĠKunris":5897,"ĠSuÃ±aytas":5898,"Ġwaqaychana":5899,"usiku":5900,"Ġrunayuq":5901,"Ġkapchiypi":5902,"Ġllump":5903,"urunkunatam":5904,"ĠRimaykuna":5905,"Ġtiqsimuyu":5906,"ĠChaqllisinchipi":5907,"ĠDÃŃaz":5908,"Ichaqa":5909,"Val":5910,"Ġuna":5911,"masi":5912,"wapi":5913,"rillo":5914,"Ġllaqtakunamanta":5915,"llaÃ±a":5916,"Ġwaj":5917,"Ġnish":5918,"ĠMÃ¡":5919,"Ġqhat":5920,"Ġqhuya":5921,"cias":5922,"puyas":5923,"arahu":5924,"naqa":5925,"ayaqa":5926,"Ġwasikunapi":5927,"raykum":5928,"ĠArÃŃ":5929,"Ġmikhunku":5930,"ĠWaywash":5931,"1960":5932,"ĠItalyapi":5933,"allapata":5934,"ĠAlexand":5935,"Ġ1939":5936,"ĠSuÃ±aytam":5937,"ĠSilva":5938,"ĠTruhillu":5939,"Qhipaq":5940,"ĠAwstralya":5941,"ĠFujimo":5942,"ĠBalliviÃ¡n":5943,"'s":5944,"Quri":5945,"unaq":5946,"Ġpaymi":5947,"tika":5948,"Ã±iy":5949,"ĠCasti":5950,"ĠCastilla":5951,"ĠSur":5952,"apsi":5953,"ĠKam":5954,"ĠHus":5955,"ĠQall":5956,"ĠWillay":5957,"ĠImpapura":5958,"Ġto":5959,"ĠDem":5960,"omÃ©":5961,"Ġyuri":5962,"Ġkaqman":5963,"Ġkaqkunaqa":5964,"Ġmunanku":5965,"Ã©li":5966,"unchawmanta":5967,"Ġrurarqan":5968,"bad":5969,"Ġ1997":5970,"ĠRunakuna":5971,"Ġhinallataqmi":5972,"Ġ1976":5973,"niykichis":5974,"masin":5975,"ĠOskar":5976,"Ġllaphi":5977,"Ġrakina":5978,"Ġkurakan":5979,"ĠCharles":5980,"Ġankalli":5981,"Ġderechon":5982,"Tiyakuynin":5983,"ĠSchool":5984,"ĠFujimori":5985,"Ho":5986,"Iwrupa":5987,"Taqna":5988,"achu":5989,"cy":5990,"pul":5991,"paymi":5992,"yqa":5993,"Î®":5994,"Ġet":5995,"chakuspa":5996,"Ġniw":5997,"yuqkunapaq":5998,"ĠpaÃŃs":5999,"ĠKillaqullu":6000,"ĠUs":6001,"ĠNikarawa":6002,"Ã©rica":6003,"Ġallqu":6004,"Ġtusuy":6005,"ĠFri":6006,"ranya":6007,"Ġumalli":6008,"Ġrimaspa":6009,"Ġfami":6010,"ĠEste":6011,"Ġuywap":6012,"Ġuywakuna":6013,"Ġphaqcha":6014,"2016":6015,"1991":6016,"ĠAlejandro":6017,"MIE":6018,"Urqukuna":6019,"achiqinqa":6020,"DEMIE":6021,"Chakra":6022,"ĠFelipe":6023,"ĠHabana":6024,"Edu":6025,"Hay":6026,"Tinkurachina":6027,"Wir":6028,"karan":6029,"ues":6030,"uco":6031,"wer":6032,"lluq":6033,"unq":6034,"pil":6035,"aram":6036,"Ġsara":6037,"wadur":6038,"ticos":6039,"llap":6040,"kichwa":6041,"ĠCusco":6042,"Ġdip":6043,"ampas":6044,"ampaq":6045,"alis":6046,"kunanta":6047,"allma":6048,"Ġmanaqa":6049,"cob":6050,"Ġ38":6051,"ĠwiÃ±a":6052,"ĠVI":6053,"villa":6054,"ette":6055,"ĠRicardo":6056,"Ġpusaqnin":6057,"erno":6058,"niyku":6059,"Ġallpapi":6060,"Ġkaptinpas":6061,"Ġkunanqa":6062,"Ġchinu":6063,"áĥĺ":6064,"ĠWallanpi":6065,"Nihun":6066,"Ġmisti":6067,"ĠMercedes":6068,"AKADEMIE":6069,"Buenos":6070,"Hanan":6071,"Mas":6072,"Pan":6073,"lÃ¡n":6074,"puri":6075,"pÃŃ":6076,"runin":6077,"anchan":6078,"chel":6079,"mari":6080,"waki":6081,"yuspa":6082,"Ġpo":6083,"rik":6084,"Ġsimillapim":6085,"Ġkayman":6086,"ĠRay":6087,"Ġqaran":6088,"Ġsutikuna":6089,"mayo":6090,"ipay":6091,"rans":6092,"ĠMac":6093,"wayku":6094,"Ġyachakuq":6095,"2003":6096,"Ġqhawariy":6097,"Inlish":6098,"ĠChuqlluqucha":6099,"ĠManawi":6100,"Ġqhipan":6101,"uwpu":6102,"asunchik":6103,"1992":6104,"1996":6105,"Ġ1942":6106,"uente":6107,"ĠMarie":6108,"aninka":6109,"Ġ1954":6110,"Waylla":6111,"ĠAmeri":6112,"Ġmusiku":6113,"uzco":6114,"ikaruy":6115,"Ġchhika":6116,"ĠSawaya":6117,"ĠLibertad":6118,"raflores":6119,"SHKS":6120,"ĠMichael":6121,"James":6122,"Nor":6123,"dus":6124,"fisya":6125,"udad":6126,"ayoq":6127,"inka":6128,"mia":6129,"Ġsill":6130,"Ġpan":6131,"Ġ(?":6132,"llakuy":6133,"ĠCam":6134,"ĠSta":6135,"aptinmi":6136,"err":6137,"chiwa":6138,"ĠBur":6139,"ĠDE":6140,"Ġ35":6141,"ĠVII":6142,"ĠMariscal":6143,"chinap":6144,"Ġcor":6145,"ashan":6146,"Wila":6147,"Ġimayman":6148,"Ġsayari":6149,"1987":6150,"Ġruruchina":6151,"ĠRimanakuy":6152,"ĠKaÃ±ar":6153,"Ġmuruyuq":6154,"ĠKhallka":6155,"ĠGeorg":6156,"Ġkimsantin":6157,"Ġkhuyapay":6158,"ĠIbÃ¡Ã±ez":6159,"ĠPidru":6160,"94":6161,"Ber":6162,"Com":6163,"Ha":6164,"IM":6165,"Kuntur":6166,"hel":6167,"meral":6168,"sel":6169,"tuk":6170,"tÃ©":6171,"ua":6172,"vista":6173,"ÆŁ":6174,"ÎŃ":6175,"charqanku":6176,"aqtan":6177,"Ġsik":6178,"Ġsuntu":6179,"Ġperu":6180,"manya":6181,"papas":6182,"qanchis":6183,"ĠPando":6184,"ĠPisqu":6185,"ĠSÃ£o":6186,"apar":6187,"ĠMit":6188,"ĠQasi":6189,"ĠChaw":6190,"anapi":6191,"ĠTra":6192,"ĠTarata":6193,"Ġkananta":6194,"ariwan":6195,"ĠYura":6196,"Ġaypan":6197,"ĠNeg":6198,"cota":6199,"Ġtupu":6200,"ĠLiyun":6201,"Ġisku":6202,"asqankuna":6203,"peri":6204,"qayta":6205,"Ġrikuchin":6206,"rusu":6207,"Wakin":6208,"ĠColl":6209,"Ġ1978":6210,"ĠMois":6211,"suyupi":6212,"1959":6213,"karay":6214,"Ġsantu":6215,"ederico":6216,"Rimaykunap":6217,"Ġqarqurqan":6218,"ĠJehovÃ¡":6219,"ĠWillkanuta":6220,"ĠRivera":6221,"ĠEliz":6222,"ĠCordillera":6223,"Fernando":6224,"Isa":6225,"iqa":6226,"lina":6227,"rÃ¡":6228,"ugen":6229,"ynin":6230,"Ġapan":6231,"qasqa":6232,"chaka":6233,"Ġllaqtakunam":6234,"Ġllaqtakunap":6235,"tumarka":6236,"ĠPl":6237,"ĠPrin":6238,"uys":6239,"urpa":6240,"onqa":6241,"ĠKus":6242,"anqati":6243,"Ġkaymanta":6244,"ĠIV":6245,"kunankupaq":6246,"ĠChuri":6247,"ĠTs":6248,"Ġkanankupaq":6249,"ĠDar":6250,"Ġqhal":6251,"Ġqheswa":6252,"Ã³bal":6253,"ĠValle":6254,"ĠLibre":6255,"ĠChaysi":6256,"ullaqa":6257,"Ġ43":6258,"ĠChiki":6259,"Ġkamayoq":6260,"ejÃŃa":6261,"resi":6262,"ArÃŃ":6263,"ĠSalinas":6264,"Ġsunquy":6265,"ĠSuÃ¡rez":6266,"Ġsuyunmi":6267,"ĠChaymantataq":6268,"Ġprofeta":6269,"ĠTumpis":6270,"Ġanafilaxia":6271,"Ġmuyun":6272,"Ġfamili":6273,"Pata":6274,"SI":6275,"gani":6276,"Ãģ":6277,"Ġuni":6278,"chani":6279,"piwan":6280,"into":6281,"ise":6282,"Ġwaway":6283,"Ġacha":6284,"Ġajina":6285,"ĠLawriqucha":6286,"ĠWaki":6287,"kunki":6288,"chayqa":6289,"Ġqhali":6290,"iph":6291,"Ġqallu":6292,"Ġqallupi":6293,"Ġyuyan":6294,"Ġmanataqmi":6295,"rand":6296,"Ãĳa":6297,"Ġmamallaqtap":6298,"Ġawus":6299,"Ġbi":6300,"Ġpusaqniyuq":6301,"ĠIspiritu":6302,"ĠEspin":6303,"Ġsutinchasqa":6304,"Ġ1977":6305,"suyupa":6306,"kusqanta":6307,"ĠmaÃ±akuy":6308,"igh":6309,"Ġorqo":6310,".;":6311,"Hampi":6312,"Ju":6313,"Jatun":6314,"Mu":6315,"Pak":6316,"Tru":6317,"biya":6318,"eda":6319,"gles":6320,"Ïį":6321,"Ġplantilla":6322,"kil":6323,"kitu":6324,"ĠAc":6325,"ĠMÃ©":6326,"illimsa":6327,"ĠKis":6328,"ĠKashapampa":6329,"awchu":6330,"ĠQalla":6331,"ĠQullaw":6332,"tinku":6333,"Ġchaykunata":6334,"cilia":6335,"ÃŃgen":6336,"Ġ1950":6337,"chikchu":6338,"olf":6339,"Ġjampi":6340,"ĠWien":6341,"Ġhayu":6342,"Ġwarmip":6343,"Indi":6344,"ĠParya":6345,"1999":6346,"ĠIspaÃ±amanta":6347,"isiÃ³n":6348,"Ġ1946":6349,"Ġchurasqa":6350,"Ġpaqarirqan":6351,"ĠQuin":6352,"Ġvirus":6353,"Antikuna":6354,"Apurimaq":6355,"Ġphinyim":6356,"Ak":6357,"ax":6358,"akunap":6359,"cÃ³n":6360,"eco":6361,"her":6362,"hatun":6363,"mes":6364,"tto":6365,"wta":6366,"mael":6367,"miÃ±a":6368,"Ġhapi":6369,"Ġray":6370,"apo":6371,"urina":6372,"ĠKurku":6373,"ĠHanan":6374,"alay":6375,"ĠIspaÃ±ul":6376,"kunanku":6377,"ordo":6378,"uliw":6379,"indi":6380,"aspaqa":6381,"iyun":6382,"utisuyu":6383,"iles":6384,"ĠDiego":6385,"Ġpaywan":6386,"Ġllaqtapmi":6387,"edu":6388,"Ġrikuri":6389,"itina":6390,"ĠEsc":6391,"Ġ1995":6392,"Ġ1983":6393,"Piruwpa":6394,"1983":6395,"1985":6396,"Ġ1941":6397,"1965":6398,"eira":6399,"Ġchuran":6400,"ĠUnduras":6401,"ĠAlemania":6402,"Ġmarsupi":6403,"ĠWillkapampa":6404,"shire":6405,"ĠSimÃ³n":6406,"))":6407,",\"":6408,"Ag":6409,"Aran":6410,"David":6411,"Kulumbya":6412,"Titiqaqa":6413,"Willay":6414,"vis":6415,"Ã¬":6416,"anca":6417,"unciÃ³n":6418,"unas":6419,"iskay":6420,"ĠpÊ¼":6421,"Ġllama":6422,"llatam":6423,"Ġchill":6424,"imiento":6425,"ĠCe":6426,"iqir":6427,"Ġmuchu":6428,"ninkuta":6429,"Ġrunapaq":6430,"ĠWamp":6431,"els":6432,"ĠJach":6433,"Chaq":6434,"ĠDre":6435,"Ġmunaynin":6436,"Ġmitan":6437,"kayta":6438,"ĠAnto":6439,"Runasimi":6440,"payta":6441,"ĠVil":6442,"Ġantinpi":6443,"lea":6444,"chinanpaq":6445,"asqanku":6446,"ĠOro":6447,"Ġuyay":6448,"Ãºbli":6449,"kunapaqpas":6450,"ĠEspiritu":6451,"Ġqullqa":6452,"Ġuywakunap":6453,"Ġ1985":6454,"1994":6455,"Ġllapallan":6456,"Ġsanampa":6457,"ĠMinisterio":6458,"Sinru":6459,"cepciÃ³n":6460,"ĠCastillo":6461,"Ġphinyimpi":6462,"Ach":6463,"Han":6464,"Kap":6465,"Lampa":6466,"Qay":6467,"Tampu":6468,"cros":6469,"ptinsi":6470,"Ġarabya":6471,"ango":6472,"uno":6473,"aqt":6474,"Ġsec":6475,"til":6476,"riri":6477,"usk":6478,"Ġchina":6479,"Ġmakiy":6480,"ĠSumaq":6481,"ĠÃ±uqayku":6482,"chiwan":6483,"ĠKe":6484,"ĠLlan":6485,"ĠUTC":6486,"ĠBri":6487,"ĠWe":6488,"ĠWank":6489,"ĠIl":6490,"chuqa":6491,"ĠJar":6492,"Chun":6493,"ĠFunda":6494,"ĠVera":6495,"Ġruranakuy":6496,"Ġintip":6497,"Ġapulli":6498,"Ġyupaychasqa":6499,"unchaykunapi":6500,"ĠÃĳa":6501,"aquÃŃn":6502,"Ġkasara":6503,"ĠBogotÃ¡":6504,"Robert":6505,"gradu":6506,"ĠKamachiq":6507,"ĠQaranqa":6508,"LLA":6509,"Ġkausay":6510,"cultural":6511,"Bibli":6512,"Ġmuksichaq":6513,"Puma":6514,"Sallqa":6515,"qhi":6516,"xa":6517,"unal":6518,"masqa":6519,"tiz":6520,"Ġhor":6521,"chakunam":6522,"usti":6523,"ĠApa":6524,"ĠSE":6525,"ĠMc":6526,"ĠMuÃ±":6527,"Ġac":6528,"Ġahina":6529,"Ġwaqta":6530,"ĠPirqa":6531,"Chacha":6532,"uliwiya":6533,"ĠDon":6534,"ĠDal":6535,"ĠGas":6536,"ĠYawa":6537,"Ã³gi":6538,"ĠNapuruna":6539,"ĠEuro":6540,"uchas":6541,"chikqa":6542,"aytaqa":6543,"Ġiniru":6544,"Ġcm":6545,"Ġkawsaykuska":6546,"Ġkutiri":6547,"landya":6548,"itz":6549,"Chiqa":6550,"Ġkamachiykuna":6551,"Ġakllay":6552,"Ġ1966":6553,"ĠLee":6554,"Ġawqaqkuna":6555,"ĠÃĳiqi":6556,"1975":6557,"Ġ1958":6558,"Machu":6559,"folia":6560,"New":6561,"aykichispaq":6562,"Awqaq":6563,"ĠMundial":6564,"Ġillanchaykuq":6565,"imsantin":6566,"ĠGabriel":6567,"Bra":6568,"FA":6569,"He":6570,"Kura":6571,"Muyu":6572,"Sam":6573,"Wank":6574,"ben":6575,"fic":6576,"kaqta":6577,"mula":6578,"oz":6579,"ykuna":6580,"tapis":6581,"llar":6582,"Ġsam":6583,"ticas":6584,"riyu":6585,"Ġher":6586,"ĠPac":6587,"ĠPatri":6588,"rawi":6589,"Ġpakasqa":6590,"ĠQul":6591,"ĠQitina":6592,"Ġqaylla":6593,"Ġwatapitaq":6594,"Challwa":6595,"achinchik":6596,"ucho":6597,"uchiq":6598,"ĠFa":6599,"wil":6600,"Ġrimaykunam":6601,"Ġangel":6602,"Ġyurakunamanta":6603,"depen":6604,"kuspan":6605,"llanwatapi":6606,"Ġ60":6607,"Ġwayt":6608,"hiniya":6609,"Ġ1968":6610,"Paul":6611,"Ġpaqarim":6612,"Ġkuntinpi":6613,"ĠmaterËĲ":6614,"ĠDyusmanta":6615,"ĠArabya":6616,"ĠCristo":6617,"ĠYachachiy":6618,"Urasuyu":6619,"ĠGregorio":6620,"alupe":6621,"800":6622,"97":6623,"Rik":6624,"Tu":6625,"hama":6626,"iÃ±":6627,"my":6628,"mÃ¡":6629,"qha":6630,"ĠÙħ":6631,"Ļ×":6632,"unpa":6633,"undo":6634,"ĠkÊ¼":6635,"Ã±awi":6636,"ĠSuwisa":6637,"ampay":6638,"uyta":6639,"Ġmos":6640,"hip":6641,"ĠQa":6642,"ĠTanta":6643,"Ġthas":6644,"ĠJer":6645,"Cha":6646,"cie":6647,"ĠGil":6648,"Ġkaqllataq":6649,"Ġpichqantin":6650,"ĠAndre":6651,"ĠIns":6652,"ayaku":6653,"ĠChile":6654,"Ġwillasqa":6655,"ĠLimapi":6656,"Ġkamayuqmi":6657,"Ġparkim":6658,"1984":6659,"Ġ1960":6660,"Lago":6661,"Ġkaspaqa":6662,"ĠRansiyapi":6663,"Ġsunturnin":6664,"Ã¼r":6665,"1945":6666,"tron":6667,"KUY":6668,"Ġniran":6669,"Ġkhuru":6670,"ĠÃģlvar":6671,"ĠRomero":6672,"Kusi":6673,"gre":6674,"ila":6675,"px":6676,"quna":6677,"rayuq":6678,"ster":6679,"thu":6680,"uf":6681,"Ġej":6682,"Ġkhan":6683,"mac":6684,"arn":6685,"Ġsitim":6686,"Ġpha":6687,"llapas":6688,"amo":6689,"uyo":6690,"ĠMill":6691,"Ġkayninmi":6692,"ĠBay":6693,"anaqa":6694,"ĠTri":6695,"ĠPichqa":6696,"mayuq":6697,"antata":6698,"ĠNin":6699,"ĠElis":6700,"Ġ37":6701,"Ġjucha":6702,"Ġquchakuna":6703,"Ġpukara":6704,"ĠChaywanpis":6705,"ĠArgu":6706,"Ġwayq":6707,"Inlatirra":6708,"ĠWaÃ±usqa":6709,"the":6710,"ĠParti":6711,"ĠParroquia":6712,"Ġmunas":6713,"untisuyu":6714,"inkina":6715,"Ġyakuta":6716,"kunantin":6717,"qsha":6718,"Ġphista":6719,"ĠFrank":6720,"ĠPaykuna":6721,"Ġ1961":6722,"1979":6723,"Libro":6724,"Ġpaqariq":6725,"ĠHinaspan":6726,"áĥĲ":6727,"Ġnisqanman":6728,"derÃ³n":6729,"Ġwasinpi":6730,"ĠMayukuna":6731,"Ġkinraynin":6732,"Ġhanlla":6733,"Ġriqyunmi":6734,"wakllanwatapi":6735,"Charles":6736,"unsyun":6737,"ĠHernÃ¡ndez":6738,"Ġawustupi":6739,"Shi":6740,"Sim":6741,"lus":6742,"xo":6743,"yd":6744,"yÃ¡":6745,"aqway":6746,"Ġkumunista":6747,"ritu":6748,"Ã±ora":6749,"Ġllaqtacha":6750,"llapaq":6751,"Ġniq":6752,"ĠAtawallpa":6753,"ĠCaj":6754,"ĠCuzco":6755,"Ġmina":6756,"ongo":6757,"Ġami":6758,"ĠÃ±ispa":6759,"ĠKumunista":6760,"Ġwww":6761,"Ġir":6762,"ques":6763,"ĠTes":6764,"asqam":6765,"ĠGali":6766,"Ġ39":6767,"Ġmayta":6768,"chiyqa":6769,"Ġlo":6770,"asqanmanta":6771,"Ġurqupi":6772,"Ġmayukunapi":6773,"Ġ1987":6774,"ĠZamora":6775,"1993":6776,"1997":6777,"ĠFrancis":6778,"Ġ1963":6779,"ebre":6780,"Ġunancha":6781,"ĠHerrera":6782,"Ġchhikan":6783,"Wikipedia":6784,"Î¯Î±":6785,"Ġyawrin":6786,"Alfredo":6787,"Ġanimal":6788,"ginia":6789,"ĠArgued":6790,"Jose":6791,"Kin":6792,"Puri":6793,"Qalla":6794,"Suqta":6795,"bis":6796,"ppas":6797,"thi":6798,"tte":6799,"ÑĮ":6800,"Ùĩ":6801,"ankunapi":6802,"cher":6803,"chunka":6804,"aqanakuy":6805,"aswan":6806,"Ġllam":6807,"Ġhallp":6808,"Ġhutk":6809,"Ġnac":6810,"ukay":6811,"tukuy":6812,"ĠPaq":6813,"ĠPuq":6814,"Ġchuri":6815,"ĠSallqa":6816,"Ġau":6817,"Ġkiru":6818,"pasapa":6819,"awar":6820,"ĠQuyllur":6821,"Ġqayan":6822,"Ġsutiwan":6823,"ĠDa":6824,"achina":6825,"achani":6826,"rayil":6827,"red":6828,"Ġtika":6829,"arak":6830,"llanpi":6831,"unchawkama":6832,"ĠVIII":6833,"hasa":6834,"Ġhaywar":6835,")\",":6836,"maqucha":6837,"Ġbec":6838,"Ġparkikuna":6839,"Ġkamachikuq":6840,"Ġ1971":6841,"1981":6842,"1995":6843,"Ġhinaspataq":6844,"ficial":6845,"1949":6846,"ĠRepublikap":6847,"Ġpachakwataqa":6848,"ĠBautista":6849,"Ġyuyaynin":6850,"Unduras":6851,"Ġkhillay":6852,"ĠHuÃ±usqa":6853,"ĠUniversity":6854,"tituto":6855,"Ġmiryu":6856,"ĠAfrikapi":6857,"ĠDrew":6858,"Muru":6859,"Qaqa":6860,"Sil":6861,"Sumaq":6862,"crib":6863,"eca":6864,"jta":6865,"kayuq":6866,"anki":6867,"qam":6868,"llisqa":6869,"aqsi":6870,"asiq":6871,"Ġpuru":6872,"Ġllaj":6873,"uskiy":6874,"Ġmaqay":6875,"Ġhukkunataq":6876,"Ġalla":6877,"Ġweb":6878,"anqata":6879,"ĠLis":6880,"ĠWayta":6881,"ĠWata":6882,"Ġpruwinsyaqa":6883,"ĠRik":6884,"orqan":6885,"ĠTer":6886,"lidad":6887,"ĠDor":6888,"cien":6889,"Ã¡z":6890,"Ġruraynin":6891,"kantun":6892,"ĠEspaÃ±a":6893,"iraqi":6894,"rano":6895,"Ġpuquq":6896,"Ġhinas":6897,"anth":6898,"ĠAlonso":6899,"Ġninmi":6900,"ariykuna":6901,"Ġqankuna":6902,"ĠMora":6903,"1963":6904,"1971":6905,"ĠXII":6906,"Ġuyariq":6907,"ĠAplaw":6908,"Ġ1955":6909,"1958":6910,"cheq":6911,"ridge":6912,"Ġnisqanta":6913,"ĠShimi":6914,"Ġpisqukunam":6915,"ISH":6916,"Ġashkha":6917,"Ġllakta":6918,"Imayna":6919,"onald":6920,"paykiqa":6921,"Ġhulyupi":6922,"ĠpaÃŃses":6923,"Eduardo":6924,"ĠElizabeth":6925,"uliwyanu":6926,"Ġinirupi":6927,"Can":6928,"Er":6929,"Mam":6930,"Ram":6931,"Ver":6932,"Will":6933,"fer":6934,"nas":6935,"pro":6936,"sas":6937,"yr":6938,"Î¸":6939,"chÃ¶":6940,"lly":6941,"inchu":6942,"Ġkana":6943,"Ġsistema":6944,"Ġnill":6945,"rac":6946,"ĠMachiqinqa":6947,"ule":6948,"erto":6949,"ĠKing":6950,"Ġwaska":6951,"enqa":6952,"ĠLeo":6953,"esar":6954,"ĠIt":6955,"ĠPizar":6956,"Churu":6957,"amawt":6958,"chasqam":6959,"Ġrunakunapa":6960,"tantin":6961,"payaq":6962,"unchawkunapi":6963,"luwak":6964,"Ġallinchay":6965,"ĠChayanta":6966,"ĠWila":6967,"Ġchalan":6968,"Ġwatamantapacha":6969,"ptinpas":6970,"Ġunqu":6971,"lismu":6972,"ĠArhintin":6973,"Ġfinan":6974,"inchikilla":6975,"Ġyakuwan":6976,"Ġmusuqmanta":6977,"Ġatinku":6978,"1988":6979,"1962":6980,"Ġ1951":6981,"Ġsinto":6982,"ĠÃ±ataq":6983,"ĠValdi":6984,"Ġphutuy":6985,"Ġmusikuq":6986,"Ġupyana":6987,"Jesus":6988,"Ã³nica":6989,"Mateo":6990,"ĠCamacho":6991,"ĠOrellana":6992,"Ġanqas":6993,"!\"":6994,"Kristiyanu":6995,"Nina":6996,"Piw":6997,"Saw":6998,"Tak":6999,"Wis":7000,"Yay":7001,"ix":7002,"km":7003,"mis":7004,"nisqa":7005,"sana":7006,"tanqa":7007,"ÏĨ":7008,"ØŃ":7009,"å¸":7010,"mawk":7011,"kuran":7012,"Ġqus":7013,"raqa":7014,"ĠAh":7015,"ĠSt":7016,"ĠKikin":7017,"ĠHuma":7018,"ĠLak":7019,"ĠLuya":7020,"ĠBre":7021,"ĠJina":7022,"Ġtapurqan":7023,"lao":7024,"Ġyuya":7025,"Ġimatachus":7026,"lton":7027,"Ġcons":7028,"Ġurquqa":7029,"ashqa":7030,"Ġkachk":7031,"chanam":7032,"Ġayllupi":7033,"aranka":7034,"eza":7035,"ĠParÃŃs":7036,"ĠiÃ±uwa":7037,"qoy":7038,"kichischu":7039,"Ġ1940":7040,"1964":7041,"ĠBarran":7042,"Ġval":7043,"niykita":7044,"Ġ1953":7045,"Ð¸Ñ":7046,"ĠPachakuti":7047,"forma":7048,"Ġrurayta":7049,"Chuqichaka":7050,"xico":7051,"Ġhuchalli":7052,"Ikwadurpi":7053,"Ġministrunin":7054,"oledo":7055,"ĠJack":7056,"Ġwiks":7057,"crosoft":7058,"luwakya":7059,"300":7060,"600":7061,"Siw":7062,"Te":7063,"gun":7064,"ides":7065,"pl":7066,"tle":7067,"Ġkut":7068,"arcis":7069,"mio":7070,"Ġsacha":7071,"ukra":7072,"Ġkachay":7073,"ĠPen":7074,"Ġnisqapiqa":7075,"Ġrispa":7076,"ĠMuyu":7077,"ĠKko":7078,"oshi":7079,"ĠUk":7080,"ĠRunaq":7081,"ĠDan":7082,"Ġ1920":7083,"ĠayÃ±i":7084,"niyta":7085,"nihun":7086,"Ġpir":7087,"ĠVega":7088,"leo":7089,"iyta":7090,"ĠInca":7091,"ilo":7092,"Ġwillaq":7093,"ĠRit":7094,"Ġtiyanan":7095,"edrich":7096,"ĠKayampi":7097,"Ġawu":7098,"Ġqillqaqpas":7099,"ĠGuillermo":7100,"Ġ1967":7101,"1961":7102,"field":7103,"Wayna":7104,"1957":7105,"ordillera":7106,"ĠHuÃ±u":7107,"ĠAwstiriya":7108,"Ġunanchan":7109,"ĠCristÃ³bal":7110,"____":7111,"ĠJehovaqa":7112,"Ġpantay":7113,"Georg":7114,"Pawqar":7115,"Ġishkay":7116,"Az":7117,"IFA":7118,"Puy":7119,"Wata":7120,"cro":7121,"pon":7122,"tÃŃ":7123,"zan":7124,"zas":7125,"áĢ":7126,"Ġâ":7127,"inus":7128,"isaq":7129,"Ġllan":7130,"Ġnapay":7131,"ĠCap":7132,"ĠSura":7133,"urana":7134,"ĠCho":7135,"âĢł":7136,"ĠTin":7137,"Ġsutiyki":7138,"sik":7139,"ĠJud":7140,"China":7141,"Ġtapu":7142,"Ġqallwa":7143,"ĠNas":7144,"Ġinf":7145,"Ġchakin":7146,"Ġ45":7147,"Santo":7148,"ĠDiosman":7149,"emo":7150,"sqankuna":7151,"Ġ70":7152,"Ġ90":7153,"ĠMicrosoft":7154,"unchayta":7155,"à¤¿":7156,"Ġespa":7157,"1976":7158,"Ġsunturkuna":7159,"karrÃŃ":7160,"Ġ1936":7161,"ĠØ¹":7162,"burn":7163,"ĠPorto":7164,"Ġqillqana":7165,"Ġpataman":7166,"ariseo":7167,"ĠRioja":7168,"Louis":7169,"umpiwillka":7170,"ĠthuÃ±i":7171,"Ġthansa":7172,"Ã¼nchen":7173,"Ġqhatuna":7174,"350":7175,"Ci":7176,"Cordillera":7177,"Ut":7178,"])":7179,"ello":7180,"uda":7181,"Äĵ":7182,"Î´":7183,"aqpa":7184,"Ġpu":7185,"kurayku":7186,"Ã±uy":7187,"Ã±ol":7188,"kawa":7189,"tuta":7190,"tuwri":7191,"ĠPuy":7192,"ĠPhi":7193,"rahu":7194,"kikuna":7195,"ĠSon":7196,"ĠSui":7197,"aph":7198,"Ġrunapura":7199,"ĠKusi":7200,"alaq":7201,"ĠQo":7202,"ĠWaw":7203,"Ġtanqa":7204,"ĠtÊ¼":7205,"ĠGor":7206,"ome":7207,"omer":7208,"indo":7209,"antam":7210,"Ġayq":7211,"irka":7212,"Ġtull":7213,"Ġ300":7214,"oqta":7215,"Ġ...":7216,"Ġuktuwri":7217,"Ġkamachiynin":7218,"chkanki":7219,"Ġentien":7220,"arkas":7221,"ĠÐĲ":7222,"1978":7223,"TAQ":7224,"ĠSober":7225,"ĠAbra":7226,"ĠWasipi":7227,"ÐºÐ¸":7228,"Ġrikunki":7229,"mond":7230,"Rurasqankuna":7231,"ĠMagdalena":7232,"ĠVenez":7233,"ĠRipuwlika":7234,"Wil":7235,"bet":7236,"dul":7237,"ny":7238,"rar":7239,"yen":7240,"ä¸":7241,"Ġmanta":7242,"chaqta":7243,"chunku":7244,"unga":7245,"Ġsamay":7246,"tir":7247,"Ġlli":7248,"turo":7249,"ĠShu":7250,"ambi":7251,"ĠKin":7252,"ĠKustarika":7253,"ĠHol":7254,"anqaku":7255,"insuyu":7256,"ĠWashington":7257,"ĠIX":7258,"ĠIo":7259,"orqanku":7260,"ĠTumas":7261,"arita":7262,"tora":7263,"Ġchaykuna":7264,"Ġupa":7265,"Ġallpan":7266,"ĠEg":7267,"ĠFacultad":7268,"Ġkamasqan":7269,"unankupaq":7270,"Ġcrup":7271,"ĠInd":7272,"Ġatipaq":7273,"Ġ400":7274,"ĠChim":7275,"unqati":7276,"Ġimaynan":7277,"Ġawril":7278,"Ġrimaqnin":7279,"Ġhinaspapas":7280,"Ġvan":7281,"Ġ1952":7282,"ustavo":7283,"ĠMayor":7284,"Ġcont":7285,"epburn":7286,"Ġdescrib":7287,"Ġkhuchi":7288,"ĠOscar":7289,"ĠPikkin":7290,"ĠTaripay":7291,"purtuyis":7292,"ĠLukana":7293,"Pukyukuna":7294,"rinidad":7295,"ĠAshaninka":7296,"Julio":7297,"SUDE":7298,"ĠInternacional":7299,"Ġriqsichipusqan":7300,"utervo":7301,"Ġdescribisqanmanta":7302,"Macha":7303,"Mikh":7304,"Puna":7305,"Phili":7306,"Su":7307,"Sol":7308,"jos":7309,"ple":7310,"kuqa":7311,"Ġnip":7312,"kali":7313,"Ġqichwa":7314,"ĠPutu":7315,"ĠAbad":7316,"ĠShe":7317,"ĠSucre":7318,"Ġran":7319,"Ġdos":7320,"Ġhuknin":7321,"enz":7322,"ĠHark":7323,"ĠLlu":7324,"ĠRusa":7325,"ĠIbarra":7326,"Ġqawar":7327,"ĠTal":7328,"sica":7329,"ĠDW":7330,"antapas":7331,"Ġrunakunas":7332,"ĠEx":7333,"Ġtupuy":7334,"tec":7335,"teria":7336,"ullana":7337,"Llapan":7338,"Ġ42":7339,"ĠChimpu":7340,"Ġrikuchi":7341,"Ġqhawaspa":7342,"thur":7343,"Ġtarisqa":7344,"ĠWaylla":7345,"Ġaklla":7346,"ĠNevado":7347,"koj":7348,"1956":7349,"Ð¾ÑĢ":7350,"Roberto":7351,"hayna":7352,"entral":7353,"ĠCalderÃ³n":7354,"Ġdisimripi":7355,"Ġhanllalli":7356,"ĠPizarro":7357,"Dyuspa":7358,"Grigur":7359,"IA":7360,"Luritu":7361,"Tay":7362,"Uchuy":7363,"Ya":7364,"bach":7365,"jch":7366,"pol":7367,"Ġyuq":7368,"Ġgo":7369,"tario":7370,"ayaq":7371,"unari":7372,"isp":7373,"askaq":7374,"Ġputu":7375,"tim":7376,"Ġlla":7377,"Ġllaqtataqa":7378,"kaman":7379,"kaws":7380,"Ġsus":7381,"Ġsuyuq":7382,"Ġnisqapaq":7383,"wanaku":7384,"ĠAtiy":7385,"ĠCÃ³rdoba":7386,"ĠMejÃŃa":7387,"ĠMISH":7388,"ondi":7389,"ĠÃ±anpi":7390,"eso":7391,"hiya":7392,"awqa":7393,"ĠQay":7394,"ĠBat":7395,"ĠChuk":7396,"ĠTim":7397,"kuyninta":7398,"apaqqa":7399,"tola":7400,"ulibiya":7401,"ĠNata":7402,"vio":7403,"Ġyarqa":7404,"ĠIndepen":7405,"iwuÃ±a":7406,"ecas":7407,"uang":7408,"parin":7409,"poli":7410,"awira":7411,"Ġ1965":7412,"pustul":7413,"ĠMariano":7414,"Ġchurana":7415,"chirqanku":7416,"Ġyachani":7417,"Kunti":7418,"Qullqa":7419,"ĠCaball":7420,"Ġempresa":7421,"torial":7422,"ĠChachapuyas":7423,"ĠJesucristo":7424,"Ġyallinakuy":7425,"Ġkhankiq":7426,"å¸Ĥ":7427,"ĠMISHKI":7428,"Emi":7429,"Jac":7430,"Me":7431,"NT":7432,"Para":7433,"William":7434,"cta":7435,"iÃ±i":7436,"lÃ©":7437,"tista":7438,"yar":7439,"áº":7440,"Ġè":7441,"aymanta":7442,"pilla":7443,"inam":7444,"aqkunam":7445,"mata":7446,"araw":7447,"arisqan":7448,"manos":7449,"chawan":7450,"ĠPueblo":7451,"wankay":7452,"ĠAcha":7453,"ĠSika":7454,"ĠMikh":7455,"urt":7456,"ĠHepburn":7457,"ĠQhu":7458,"Ġkaywan":7459,"ĠRub":7460,"ĠChaka":7461,"ĠTara":7462,"ĠTupi":7463,"kuyqa":7464,"Ġyatana":7465,"lie":7466,"maya":7467,"Ġtaru":7468,"Ġ1929":7469,"Ġtuy":7470,"ĠFlor":7471,"ted":7472,"huay":7473,"Ġju":7474,"Ġ44":7475,"ĠRoberto":7476,"yunkuna":7477,"ĠGriguryu":7478,"mund":7479,"araqu":7480,"ĠCora":7481,"Ġhampiq":7482,"Ġ1948":7483,"1966":7484,"1970":7485,"Manachu":7486,"Ġyachaspa":7487,"Qillqasqankuna":7488,"Ġqhatuchay":7489,"Ġwawqin":7490,"Ġuchuylla":7491,"ĠTurkiya":7492,"ĠBernardo":7493,"Ġservi":7494,"ĠJerusalÃ©n":7495,"Ã³mez":7496,"ĠÃģngel":7497,"ĠParyaqaqa":7498,"Bel":7499,"Cara":7500,"Ex":7501,"MA":7502,"Ukayali":7503,"Wari":7504,"Wall":7505,"bay":7506,"bas":7507,"ile":7508,"jan":7509,"opi":7510,"tsa":7511,"zÃ¡n":7512,"×ķ":7513,"à§":7514,"chkaspa":7515,"ayniyuq":7516,"aqch":7517,"aring":7518,"Ġshuk":7519,"wal":7520,"Ġho":7521,"Ġhill":7522,"Ġhallka":7523,"Ġsull":7524,"ĠPayta":7525,"ĠAti":7526,"Ġraryu":7527,"urs":7528,"ulis":7529,"Ġriy":7530,"Ġrunakunan":7531,"ĠÃ±uqanchik":7532,"ĠKat":7533,"ĠKir":7534,"ĠWis":7535,"ĠPitumarka":7536,"Ġaya":7537,"nico":7538,"Ã³w":7539,"kanki":7540,"chista":7541,"ĠEcuador":7542,"ĠEugen":7543,"ĠSanti":7544,"Ġurmay":7545,"Ġyachaymi":7546,"ayakil":7547,"acu":7548,"kusun":7549,"Ġamachana":7550,"Ġsit":7551,"Ġtakiy":7552,"Ġmarkam":7553,"ĠAlvara":7554,"emb":7555,"Ġfauna":7556,"Waka":7557,"hark":7558,"Ġwasim":7559,"Ġunquymi":7560,"1968":7561,"1974":7562,"1977":7563,"âĢıâĢİ":7564,"ĠMontes":7565,"tores":7566,"Ġ1956":7567,"ristoq":7568,"Ġyanapana":7569,"ĠUnyun":7570,"1948":7571,"Ġkausaynin":7572,"ĠWallqanqa":7573,"ĠChakra":7574,"Ġcasos":7575,"George":7576,"Ġdipluma":7577,"ĠSECO":7578,"Ġsitimripi":7579,"ĠArguedas":7580,"Kas":7581,"Luc":7582,"ball":7583,"cz":7584,"cer":7585,"fÃŃa":7586,"ky":7587,"tÃ©s":7588,"ãĤ":7589,"Ġáĥ":7590,"tasqa":7591,"tapuni":7592,"unya":7593,"inaquta":7594,"milla":7595,"kukuna":7596,"Ġhanan":7597,"Ġnuqa":7598,"ustin":7599,"Ġwatasqa":7600,"ĠMam":7601,"ĠMach":7602,"ĠMisk":7603,"ĠMÃ¼nchen":7604,"urg":7605,"ende":7606,"inal":7607,"awaq":7608,"ĠBÃ¡r":7609,"ĠWhi":7610,"Ġyam":7611,"Ġchayan":7612,"Ġqhispi":7613,"Ġ1918":7614,"Ġ1917":7615,"dilla":7616,"imis":7617,"ĠAnqas":7618,"Ġhawaman":7619,"Ġmayuki":7620,"gob":7621,"Ġyurap":7622,"Ġpuqun":7623,"utÃ³n":7624,"Ġkachkaspa":7625,"ueva":7626,"ĠAlma":7627,"Ġbuliwyanu":7628,"aliyu":7629,"Ġyupaychan":7630,"ĠhuÃ±uy":7631,"ĠSevilla":7632,"ĠKunsipsyun":7633,"ĠÃī":7634,"Ġyuyayniyoq":7635,"Ġatiynin":7636,"ĠPachakamaq":7637,"ĠPotter":7638,"Î¿Î½":7639,"Ġtakina":7640,"rÃŃas":7641,"ĠUrqukuna":7642,"ĠPukyu":7643,"ĠPukara":7644,"Ġpuncha":7645,"Aqupampa":7646,"tolomÃ©":7647,"Ġchiqniq":7648,"Ġbibles":7649,"Ġwamanim":7650,"donado":7651,"Ġpusapunakuna":7652,"ĠQasikaypi":7653,"Ġmayukillapi":7654,"?\"":7655,"Ban":7656,"Beni":7657,"Kathuliku":7658,"Ric":7659,"Ta":7660,"UR":7661,"Wat":7662,"Wamp":7663,"cci":7664,"dsuyu":7665,"glo":7666,"ili":7667,"ida":7668,"kla":7669,"musqa":7670,"mph":7671,"ola":7672,"sal":7673,"wiktionary":7674,"Ã²":7675,"Ġx":7676,"chh":7677,"piya":7678,"aqkunap":7679,"Ġsaya":7680,"Ġsisa":7681,"Ġllaqtawan":7682,"ruqucha":7683,"Ġnana":7684,"Ġqi":7685,"rap":7686,"ĠMeg":7687,"Ġmo":7688,"Ġriwi":7689,"Ġpachaq":7690,"ĠKuri":7691,"ĠHon":7692,"awsi":7693,"ĠQuis":7694,"Ġkaytaq":7695,"ligi":7696,"ĠDol":7697,"ĠumiÃ±a":7698,"Ġayll":7699,"Ġpisqa":7700,"ĠEm":7701,"cora":7702,"olu":7703,"tellan":7704,"Ġwichay":7705,"ransya":7706,"ĠSandia":7707,"vila":7708,"Ġcham":7709,"Ġmayukuna":7710,"ĠChiqa":7711,"phis":7712,"Ġparti":7713,"ecuti":7714,"AndrÃ©s":7715,"Ġlado":7716,"ĠKayqa":7717,"Ġwayk":7718,"talaya":7719,"ĠAsankaru":7720,"ĠEsper":7721,"ĠMiraflores":7722,"Ġyakum":7723,"kichismi":7724,"1986":7725,"ision":7726,"Ġunquyta":7727,"ĠNicolÃ¡s":7728,"ĠJohan":7729,"Ġ1957":7730,"Ð°Ð½":7731,"Ġchantaqa":7732,"tional":7733,"ansaliyu":7734,"Î¹Îº":7735,"Ġmusikuy":7736,"Ġwawqe":7737,"Ġcheq":7738,"Ġtawqa":7739,"ĠSapsi":7740,"ĠHuanca":7741,"Ġsacerdo":7742,"Qhipaqnin":7743,"Ã©lix":7744,"qshapampa":7745,"Ġawrilpi":7746,"ĠAlvarado":7747,"/.":7748,"Ata":7749,"Ash":7750,"Augus":7751,"Icha":7752,"Pu":7753,"Qui":7754,"az":7755,"gor":7756,"ichi":7757,"sill":7758,"uqaqa":7759,"Ġgen":7760,"Ġusa":7761,"ankunata":7762,"maman":7763,"Ġsyn":7764,"kull":7765,"Ġner":7766,"raki":7767,"Ġpachas":7768,"Ġkilu":7769,"ĠKuru":7770,"ĠHill":7771,"ĠLuz":7772,"ĠBena":7773,"ĠWaq":7774,"Chan":7775,"Chinchi":7776,"Ġ1924":7777,"lagro":7778,"ĠPiruwpipas":7779,"achisqan":7780,"irisqa":7781,"guÃŃa":7782,"lem":7783,"Ġyachayniyuq":7784,"Ġqhapaqsuy":7785,"Ġnispaqa":7786,"Ġ41":7787,"qayki":7788,"Ġpulitikum":7789,"Ġrikurqan":7790,"Ġruwaykuna":7791,"aqasqa":7792,"Ġkawsaqkuna":7793,"107":7794,"Ġ1972":7795,"ĠFrances":7796,"1967":7797,"ĠÐĴ":7798,"ĠNico":7799,"Ġwaqachinam":7800,"Ġatiyniyuq":7801,"Ġ1938":7802,"ĠwaÃ±uchispa":7803,"Ġhunyupi":7804,"ĠIntercultural":7805,"ĠBilhika":7806,"Rafael":7807,"ĠBernard":7808,"Pasqu":7809,"ĠBusch":7810,"ĠBustillo":7811,"Ġpruwinsyanmi":7812,"ĠKapchiy":7813,"Universidad":7814,"ĠFundacion":7815,"ĠSoberano":7816,"utÃ³noma":7817,"Feli":7818,"INA":7819,"Min":7820,"Puq":7821,"Pil":7822,"Pinchikilla":7823,"Sus":7824,"Ste":7825,"Uk":7826,"Waq":7827,"ois":7828,"tbol":7829,"vera":7830,"wina":7831,"zu":7832,"Ġ%":7833,"Ġaru":7834,"taki":7835,"asya":7836,"miri":7837,"Ġsamk":7838,"Ġsaru":7839,"Ġsobre":7840,"waÃ±":7841,"Ġpulitika":7842,"tifisya":7843,"rius":7844,"Ġwawas":7845,"ukar":7846,"Ġsullu":7847,"Ġsuchuq":7848,"kir":7849,"Ġchu":7850,"ĠSha":7851,"ĠSak":7852,"illchinakuna":7853,"ĠQichwa":7854,"ĠWest":7855,"atma":7856,"orn":7857,"ele":7858,"Chinu":7859,"ĠGama":7860,"ĠGall":7861,"Ġ1925":7862,"ĠFÃº":7863,"ĠFlorida":7864,"umba":7865,"Ġmaypipas":7866,"Ġkamarqan":7867,"ĠVista":7868,"Ġlay":7869,"viÄĩ":7870,"dea":7871,"atallas":7872,"Ġwasita":7873,"antoni":7874,"Ġniwan":7875,"ĠIkwadurpa":7876,"ĠKaypi":7877,"103":7878,"uck":7879,"Ġatinmi":7880,"Ġwawaqa":7881,"Ġestre":7882,"ĠWankani":7883,"Ġmaqt":7884,"ĠAmÃ©rica":7885,"Ġwaqaychasqa":7886,"Ġphiruru":7887,"Ġrikunchik":7888,"arroel":7889,"Qhari":7890,"ĠVillarroel":7891,"IÃ±uku":7892,"Ġbauti":7893,"Ġnuwimripi":7894,"Ġpartidupi":7895,"Ġawqanakuy":7896,"ĠJimÃ©nez":7897,"aqtanakuna":7898,"gradupi":7899,"áĥĲáĥ":7900,"Piwra":7901,"ĠIoan":7902,"Ricardo":7903,"CU":7904,"Las":7905,"Latin":7906,"UH":7907,"Uch":7908,"Vir":7909,"cchu":7910,"cto":7911,"gisqa":7912,"Ġ00":7913,"Ġbr":7914,"taÃ±a":7915,"inpi":7916,"Ġkhi":7917,"Ġsol":7918,"kuchun":7919,"Ġwallpa":7920,"tucha":7921,"rak":7922,"kira":7923,"ĠAre":7924,"ĠAlan":7925,"ĠMed":7926,"iqin":7927,"ond":7928,"ondo":7929,"Ġaka":7930,"ĠLim":7931,"ĠToledo":7932,"Ġyachasqa":7933,"ĠPiru":7934,"ĠPipas":7935,"yang":7936,"ĠJord":7937,"ĠDes":7938,"ĠGÃ³mez":7939,"awallu":7940,"Ġ1922":7941,"lav":7942,"laza":7943,"Ġpiruw":7944,"ĠAnton":7945,"ĠLibro":7946,"urinkin":7947,"Ġpaypi":7948,"Ġmarkap":7949,"Ġchaskiy":7950,"pinuta":7951,"ĠAsunciÃ³n":7952,"Ġyupaychana":7953,"Ġ1988":7954,"udyu":7955,"ĠAlimanyap":7956,"Ð°ÑĢ":7957,"1954":7958,"ĠUniÃ³n":7959,"ĠUqunqati":7960,"ĠGarci":7961,"Ġsuyunpi":7962,"ĠBerm":7963,"Ġphiwri":7964,"ventura":7965,"Ġkawsayninta":7966,"kasapa":7967,"umbold":7968,"Ġupyan":7969,"à¥Ģ":7970,"ĠChiklayu":7971,"Ġatispa":7972,"Ġwamra":7973,"ĠPuruha":7974,"ĠQanchisnintin":7975,"unchul":7976,"uestra":7977,"meraldas":7978,"Ġmosoq":7979,"hiptu":7980,"aringitis":7981,"Ah":7982,"At":7983,"Dis":7984,"Edi":7985,"Her":7986,"IE":7987,"Rit":7988,"VÃŃctor":7989,"achiy":7990,"aqay":7991,"muru":7992,"mosa":7993,"pÃŃs":7994,"rasqa":7995,"tnam":7996,"yon":7997,"}}":7998,"Ñĭ":7999,"Ġvin":8000,"Ġecon":8001,"anum":8002,"chill":8003,"aye":8004,"Ġkriy":8005,"ĠkÃ«":8006,"yachay":8007,"pakuq":8008,"kami":8009,"Ġquch":8010,"Ġqunqa":8011,"Ġquchun":8012,"tula":8013,"ĠPaymi":8014,"ĠPuwpu":8015,"raj":8016,"ĠAla":8017,"Ġchuq":8018,"ĠClemen":8019,"ĠSmi":8020,"Ġrant":8021,"Ġhukmanta":8022,"iqui":8023,"Ġrich":8024,"Ġrikus":8025,"ence":8026,"ĠHigh":8027,"anqapiqa":8028,"osi":8029,"Ġkayku":8030,"kuymanta":8031,"kuychu":8032,"niraq":8033,"Ã³li":8034,"Ġkaqtaq":8035,"chishka":8036,"wila":8037,"Ġuras":8038,"Ġumallina":8039,"chinchik":8040,"Ġ46":8041,"ĠRock":8042,"ĠRichard":8043,"ĠWaqay":8044,"boa":8045,"ege":8046,"ĠLago":8047,"Ġkachkanku":8048,"Waman":8049,"uwis":8050,"Ġtukusqa":8051,"Ġsapallan":8052,"ĠSalwadur":8053,"fica":8054,"uper":8055,"Ġ1959":8056,"1952":8057,"1953":8058,"Ġlluqs":8059,"ambridge":8060,"Ġ1937":8061,"ĠwaÃ±uchi":8062,"Waras":8063,"liodoro":8064,"ĠKaÃ±iti":8065,"ĠjuntÊ¼":8066,"Hinallataq":8067,"isquq":8068,"ĠHenry":8069,"ĠCOSUDE":8070,"ĠChinchipi":8071,"ĠChinchiru":8072,"hiyup":8073,"Ġbible":8074,"ĠHamut":8075,"wood":8076,"Ġutqaylla":8077,"MANTA":8078,"ĠGuadalupe":8079,"llantaytampu":8080,"Kuraka":8081,"ĠÃģlvarez":8082,"Ġqayanqillqa":8083,"Ġuktuwripi":8084,"Grisya":8085,"Hen":8086,"Mor":8087,"Payqa":8088,"Ts":8089,"USA":8090,"WAN":8091,"ek":8092,"ikun":8093,"jtin":8094,"tti":8095,"yayuq":8096,"Ġem":8097,"ayman":8098,"aykunata":8099,"aqkunata":8100,"ukama":8101,"kapun":8102,"Ġquya":8103,"ĠPansaliyu":8104,"ĠSec":8105,"uras":8106,"Ġpaqa":8107,"Ġkichka":8108,"Ġil":8109,"inawa":8110,"ĠWik":8111,"ĠWawra":8112,"kunanka":8113,"quri":8114,"ĠTak":8115,"liwru":8116,"lichuku":8117,"Ġqhas":8118,"Ġasta":8119,"Ġasuy":8120,"achun":8121,"Ġpichus":8122,"Ġmiraynin":8123,"ĠFrÃŃas":8124,"Runap":8125,"ranpi":8126,"ĠMata":8127,"Ġyunka":8128,"iyar":8129,"Ġyurakunata":8130,"Ġurqukunamanta":8131,"Ġpusay":8132,"ukumpi":8133,"ĠAsunsyun":8134,"Ġ80":8135,"Ġsayaq":8136,"Kamachi":8137,"lluruna":8138,"2013":8139,"ĠGuar":8140,"ĠNavar":8141,"ukachi":8142,"ĠBarbara":8143,"Ã©ndez":8144,"1972":8145,"eau":8146,"1951":8147,"Ġ1934":8148,"Ġsinqa":8149,"Ġchaqn":8150,"roso":8151,"Ġpurispa":8152,"Ġpurtuyis":8153,"Ġmikhunata":8154,"ĠTorre":8155,"ĠpuÃ±uy":8156,"Ġhanaqmi":8157,"ÏĥÏĦ":8158,"ĠAlfredo":8159,"à¥į":8160,"ĠKallaw":8161,"ĠChakas":8162,"Ð¾Ð²Ð¸Ñĩ":8163,"ĠLucas":8164,"ĠVirginia":8165,"ĠReserva":8166,"Ġtusuq":8167,"kichwapi":8168,"ĠYawatisuyu":8169,"Ġbecario":8170,"ĠBÃ¡rbara":8171,"Ġphiwrirupi":8172,"pÃŃstola":8173,"Bal":8174,"Gra":8175,"Kuta":8176,"Lu":8177,"Mer":8178,"Mata":8179,"Pun":8180,"Pill":8181,"Ser":8182,"Tin":8183,"Uq":8184,"Waw":8185,"Winisuyla":8186,"jun":8187,"lta":8188,"wir":8189,"warmi":8190,"xos":8191,"yc":8192,"yayta":8193,"ÉĻ":8194,"ËĪ":8195,"×Ļ×":8196,"Ø¹":8197,"àª":8198,"Ġmantapas":8199,"anqan":8200,"aqqa":8201,"masa":8202,"yup":8203,"Ġllas":8204,"yam":8205,"Ġsurq":8206,"qanakuy":8207,"Ġqusqa":8208,"Ġqiru":8209,"Ġqipa":8210,"use":8211,"ĠAq":8212,"ĠAwa":8213,"ĠAyu":8214,"ĠCel":8215,"ĠSun":8216,"ampan":8217,"ninakuy":8218,"ĠÃ±aqha":8219,"Ġkichar":8220,"osto":8221,"ĠBis":8222,"ĠWam":8223,"ĠRUNA":8224,"ors":8225,"kuypi":8226,"Ġ1919":8227,"omÃŃa":8228,"dim":8229,"ĠwaÃ±usqan":8230,"kunapiwan":8231,"1950":8232,"chikkuna":8233,"Ġwank":8234,"Ġjud":8235,"ranu":8236,"Ġlaw":8237,"guas":8238,"Ġchaka":8239,"ĠChiri":8240,"ĠRojas":8241,"Anqas":8242,"ĠYalapipas":8243,"ĠwiÃ±ariy":8244,"obi":8245,"Ġuywakunapas":8246,"Ġantawa":8247,"Ġkasqanmanta":8248,"Ġkasqankuta":8249,"Ġphatmi":8250,"1998":8251,"ĠInkawi":8252,"nelio":8253,"Ġ1944":8254,"ĠCorn":8255,"Ġkashaqtin":8256,"ĠJoaquÃŃn":8257,"Ġrumita":8258,"orado":8259,"nesto":8260,"ĠConcepciÃ³n":8261,"ĠChayraykum":8262,"Johan":8263,"ĠCampo":8264,"ĠJanq":8265,"Ġrakisqa":8266,"ologÃŃa":8267,"Ã§a":8268,"ĠAlfaro":8269,"ĠYachachiq":8270,"ĠNorth":8271,"ĠÃ±awiriy":8272,"ĠMoskwa":8273,"Ġimatapis":8274,"Qillqaqkuna":8275,"ĠDelgado":8276,"ĠNueva":8277,"ĠNuevo":8278,"ĠMaraÃ±un":8279,"pÃŃritu":8280,"helm":8281,"Ġqhaliya":8282,"ĠFÃºtbol":8283,"Bil":8284,"Ir":8285,"Liyun":8286,"Misk":8287,"Pl":8288,"Puru":8289,"cano":8290,"iang":8291,"korqa":8292,"uÃ©":8293,"áŀ":8294,"cht":8295,"chinki":8296,"miento":8297,"Ġllaqtakunaq":8298,"Ġnisqataqa":8299,"ĠAj":8300,"Ġchupa":8301,"Ġrec":8302,"ĠMaya":8303,"ĠmÃ¡s":8304,"ĠKen":8305,"atÃ¡":8306,"anata":8307,"cios":8308,"ĠYaya":8309,"Ġ1901":8310,"Ġuwi":8311,"Ã³mi":8312,"Ġqallarisqan":8313,"rani":8314,"Ġlayqa":8315,"Ġallintam":8316,"chinu":8317,"Lluq":8318,"Santu":8319,"log":8320,"Ġtakikuna":8321,"kunapaqmi":8322,"Ġfariseo":8323,"ĠwiÃ±arin":8324,"Ġ75":8325,"Ġwillakun":8326,"Ġnisqapim":8327,"rqaku":8328,"Ġkamayuqninmi":8329,"ucar":8330,"Ġotaq":8331,"asunki":8332,"Ġkunantaq":8333,"Ġqullqichay":8334,"ĠÐ¡":8335,"Parawayi":8336,"Ã¡squez":8337,"ĠØ¨":8338,"uwatana":8339,"Ġrunayuqmi":8340,"Ġpurina":8341,"Ġkunkapaqmi":8342,"ĠMaldonado":8343,"Ġwaqachiqmi":8344,"Ã±askitu":8345,"Ġisqunniyuq":8346,"Ġllumpapi":8347,"Ġatisqan":8348,"Ġmitrukama":8349,"apunim":8350,"ĠMilano":8351,"ĠHisus":8352,"Ġchalanpi":8353,"ukumpiyu":8354,"IB":8355,"OS":8356,"PE":8357,"Phu":8358,"eu":8359,"ij":8360,"iwi":8361,"med":8362,"pt":8363,"ymi":8364,"Ð·":8365,"à¶":8366,"aqui":8367,"kuyuq":8368,"mano":8369,"patu":8370,"Ã±ap":8371,"Ã±ari":8372,"Ġllaqtas":8373,"Ġllaqtacham":8374,"ĠPÃ¡":8375,"ĠPaqta":8376,"iquq":8377,"Ġmut":8378,"nina":8379,"ninpas":8380,"Ġaman":8381,"chita":8382,"enÃ©":8383,"enda":8384,"esis":8385,"alberto":8386,"ĠToro":8387,"sir":8388,"arikun":8389,"Chuk":8390,"ĠYach":8391,"Ġqillqaspa":8392,"Ġqillqayta":8393,"ipo":8394,"ĠwaÃ±un":8395,"Ġyupan":8396,"ĠNaska":8397,"ĠFitz":8398,"Ġaswanmi":8399,"teo":8400,"Ġimachus":8401,"Ġinfec":8402,"ĠMarg":8403,"Ġcuen":8404,"pera":8405,"Ġsimana":8406,"unkuyu":8407,"ĠArce":8408,"ĠIskusya":8409,"Chim":8410,"Ġpuririy":8411,"dores":8412,"charqa":8413,"kuyninqa":8414,"ĠÐľ":8415,"psis":8416,"Ġkaspapas":8417,"ĠJoan":8418,"Ġniykichis":8419,"ĠWaral":8420,"Ġarma":8421,"tados":8422,"ĠPalma":8423,"ĠTex":8424,"ĠManuela":8425,"ather":8426,"Ġpaqarisqanmanta":8427,"Ġkunkawaki":8428,"Enrique":8429,"tawalu":8430,"Ġmuchuy":8431,"ĠApuwasinyuq":8432,"llaqtan":8433,"ĠÃ±oqayku":8434,"Î·ÏĤ":8435,"Ġinternet":8436,"IÃ±iy":8437,"ĠLinares":8438,"ĠAlexander":8439,"unqur":8440,"ĠPrince":8441,"arciso":8442,"Ana":8443,"Javier":8444,"Res":8445,"Ruraq":8446,"Tum":8447,"Tata":8448,"].":8449,"bil":8450,"cÃ¡":8451,"cucho":8452,"eter":8453,"gri":8454,"ht":8455,"jillo":8456,"vantes":8457,"zos":8458,"Ġ{":8459,"aqchu":8460,"Ġkuya":8461,"istam":8462,"isami":8463,"art":8464,"arch":8465,"Ġsisi":8466,"Ġpampam":8467,"rupo":8468,"ĠsuÃ±ay":8469,"Ġchey":8470,"Ġchhuk":8471,"ĠSinchi":8472,"Ġhuktawan":8473,"ĠMawk":8474,"ninkunaqa":8475,"Ġwayaqa":8476,"anqakunapi":8477,"ost":8478,"alta":8479,"ĠQam":8480,"ĠBir":8481,"ĠBud":8482,"ĠBinidiktu":8483,"ĠChal":8484,"Ġyapay":8485,"ĠtÃ©c":8486,"arios":8487,"ĠJara":8488,"ĠDim":8489,"ÃŃrez":8490,"Ġ1927":8491,"Ġrunakunataq":8492,"diyu":8493,"Ġpillun":8494,"Ã©l":8495,"Ġpachakunapi":8496,"ikllu":8497,"ĠFir":8498,"olm":8499,"Ġwiru":8500,"Ġmayt":8501,"Ġjark":8502,"Ġimakunatapas":8503,"ĠMachaqa":8504,"Ġinlis":8505,"ĠMarcel":8506,"kuqtin":8507,"ayninwan":8508,"ĠSuyuyuq":8509,"cedo":8510,"lantiku":8511,"Ġatiyta":8512,"anaqucha":8513,"Ġunqun":8514,"lotte":8515,"Ġqhawarispa":8516,"Ġmikhuch":8517,"Ġbin":8518,"Ġpusaqkuna":8519,"ĠParinaquta":8520,"Ġmunakun":8521,"Ġsayay":8522,"ĠLlaqtakuna":8523,"hou":8524,"homa":8525,"pachapi":8526,"2015":8527,"Ġqillqasqanqa":8528,"ĠDyusqa":8529,"atipu":8530,"Ġatinki":8531,"garÃ¡":8532,"Ġreligi":8533,"minta":8534,"Ġqillqanku":8535,"dente":8536,"Ġwakichiy":8537,"1946":8538,"Roma":8539,"Ġkallpacha":8540,"Ġyachachiqmi":8541,"Ġhuchha":8542,"wriyu":8543,"Chuqi":8544,"anchamayu":8545,"anchikpaq":8546,"Ġpachakmanta":8547,"ĠRamÃŃrez":8548,"Ġ1904":8549,"Ġ1909":8550,"ĠMorona":8551,"medo":8552,"media":8553,"dalgo":8554,"Ġapamusqa":8555,"ĠBilin":8556,"Ġrakinmi":8557,"ĠNorte":8558,"Ġklubkuna":8559,"Ġmuhu":8560,"Paykunaqa":8561,"Ġlloqsi":8562,"Ġonq":8563,"Ġrespe":8564,"ĠAsyapipas":8565,"ĠPhilipina":8566,"Ġmakiyasiq":8567,"ĠHumala":8568,"ĠIoannes":8569,"101":8570,"Ad":8571,"Ika":8572,"Mill":8573,"Phi":8574,"Rusiya":8575,"Son":8576,"fag":8577,"gne":8578,"kwash":8579,"panta":8580,"uwan":8581,"zano":8582,"Ġvo":8583,"ane":8584,"chester":8585,"llaraq":8586,"undes":8587,"inqu":8588,"Ġkum":8589,"Ġso":8590,"tiva":8591,"Ġllant":8592,"yachina":8593,"Ġllaqtakunaman":8594,"Ġwallam":8595,"Ġqe":8596,"Ġqel":8597,"Ġqullu":8598,"ĠPis":8599,"ĠPusaq":8600,"Ġnisqayuq":8601,"Ġnisqamantaqa":8602,"ĠSuma":8603,"chiqa":8604,"ĠKuntisuyu":8605,"enti":8606,"ĠHullaqa":8607,"ĠUlimpiku":8608,"ĠRaya":8609,"taqu":8610,"atina":8611,"ĠChun":8612,"ĠChallwa":8613,"ĠTuk":8614,"ciano":8615,"Ġqillqas":8616,"Ġkawsana":8617,"Ġkawsasqa":8618,"dico":8619,"Ġpachapipas":8620,"Ã±ataqmi":8621,"Ġtupa":8622,"Ġtutay":8623,"hatu":8624,"hui":8625,"Ġwiki":8626,"tunya":8627,"chinmi":8628,"ayninqa":8629,"aklla":8630,"Ġhaywari":8631,"ĠurquÃ±iq":8632,"ĠOllanta":8633,"Ġiskaynin":8634,"Ang":8635,"lov":8636,"ĠAltu":8637,"Indya":8638,"qaqkuna":8639,"tone":8640,"ĠAstawan":8641,"150":8642,"Ġapull":8643,"Ġuywakunata":8644,"Ġphransis":8645,"Ġallpamanta":8646,"Ġkallpay":8647,"Ġlluqsin":8648,"ĠSupay":8649,"Diego":8650,"Ġ1935":8651,"ĠiÃ±iypi":8652,"ĠÃ±aupa":8653,"ĠValencia":8654,"ysu":8655,"ĠKamachi":8656,"Ġrurasqankuna":8657,"Ġnispas":8658,"Ġtakana":8659,"Ġpisqukuna":8660,"ĠMatÃŃas":8661,"Ġ1908":8662,"ĠSiles":8663,"Yawyu":8664,"Ġwawqi":8665,"Ġwisq":8666,"Ġqelqasqa":8667,"Ã³nimo":8668,"Mariano":8669,"ĠCervantes":8670,"Ġsamari":8671,"Ġsamana":8672,"Ġruqyay":8673,"tudios":8674,"ĠSusyalista":8675,"Ġderechonchis":8676,"ĠCollege":8677,"iÃ±icha":8678,"Ġfinanci":8679,"Ġdiplumatiku":8680,"%),":8681,"AK":8682,"Cu":8683,"Flor":8684,"Janq":8685,"Micha":8686,"NIN":8687,"PAQ":8688,"Yun":8689,"imanta":8690,"imay":8691,"jin":8692,"jara":8693,"kra":8694,"lasi":8695,"sisqan":8696,"tela":8697,"ykuta":8698,"tale":8699,"inz":8700,"Ġsami":8701,"Ġpura":8702,"Ġprovincia":8703,"tikanu":8704,"kusi":8705,"pallqa":8706,"Ġsuper":8707,"Ġqiris":8708,"ĠPaqa":8709,"uss":8710,"usun":8711,"wantaq":8712,"ĠCup":8713,"ĠClub":8714,"ĠSas":8715,"ĠSeg":8716,"ĠSatan":8717,"urka":8718,"Ġmon":8719,"ulin":8720,"Ġsuyukunaman":8721,"ĠKuti":8722,"ĠKhiniya":8723,"Ġilik":8724,"ĠHaw":8725,"ĠQelqa":8726,"ĠRurunkunatam":8727,"Ġchaypas":8728,"Ġichapas":8729,"Ġ1914":8730,"Ġkawsarqan":8731,"Ġkaqkunamanta":8732,"allu":8733,"allaqta":8734,"cachi":8735,"wig":8736,"ranku":8737,"Ġquchaman":8738,"Ġcan":8739,"Ġ500":8740,"dera":8741,"ĠâĢİ(":8742,"ĠRikuway":8743,"Ġwakllanwata":8744,"embre":8745,"ĠEspiri":8746,"Ġyakuchaq":8747,"vedo":8748,"Ġkikinmanta":8749,"chkani":8750,"charis":8751,"Distritukuna":8752,"Ġruruchinap":8753,"ĠCoronel":8754,"Ġchurkuykuna":8755,"Ġchinkay":8756,"Ġrunasimitam":8757,"1941":8758,"cales":8759,"kunapak":8760,"ÃŃso":8761,"Ġtakyasqa":8762,"ÏģÎ±":8763,"Ġcomo":8764,"ĠJacob":8765,"ĠwaÃ±uchiq":8766,"ĠGermÃ¡n":8767,"araÃ±awi":8768,"Rurasqakuna":8769,"ĠPuno":8770,"ĠVillar":8771,"ĠPurus":8772,"Peter":8773,"Ġakllanakuykunapi":8774,"ĠWiraqucha":8775,"Ġirqi":8776,"ĠValdivia":8777,"Ġestrep":8778,"fagasta":8779,":.":8780,"Bern":8781,"Go":8782,"Gre":8783,"IT":8784,"Maki":8785,"Mit":8786,"Rus":8787,"Such":8788,"Tri":8789,"Tupaq":8790,"fera":8791,"gl":8792,"ian":8793,"ska":8794,"yman":8795,"Ġà¦":8796,"chanmi":8797,"pia":8798,"inankupaq":8799,"kumani":8800,"kutiy":8801,"yapa":8802,"ĠPill":8803,"ĠPruwinsya":8804,"usep":8805,"ĠAni":8806,"imitaq":8807,"ĠSik":8808,"ĠSag":8809,"Ġsimiwan":8810,"Ġatam":8811,"ĠÃ±ut":8812,"Ġsuyuwan":8813,"erÃŃa":8814,"Ġpag":8815,"Ġpall":8816,"Ġpatron":8817,"Ġichhu":8818,"enpi":8819,"ĠHas":8820,"ĠHil":8821,"inata":8822,"Ġkaykunapi":8823,"ĠBru":8824,"ĠBec":8825,"ĠWayakil":8826,"ĠItur":8827,"ĠChin":8828,"ĠChapari":8829,"ĠTol":8830,"ĠTaytan":8831,"kuywan":8832,"ĠDak":8833,"ĠGr":8834,"die":8835,"Ġpirqan":8836,"ĠNiqir":8837,"pumaqucha":8838,"dora":8839,"ĠAngel":8840,"irre":8841,"tano":8842,"ikran":8843,"ĠVÃŃctor":8844,"ĠÃ±awra":8845,"Ġumallin":8846,"ĠMaki":8847,"guero":8848,"kuqqa":8849,"kuqmi":8850,"vides":8851,"Ġpuqu":8852,"Ġuywan":8853,"Ġatiparqan":8854,"Ġ47":8855,"Ġwarku":8856,"Ġqhawasqa":8857,"Ġruwarqa":8858,"ity":8859,"ĠWade":8860,"ĠÂł":8861,"ĠGuerra":8862,"Ġwaqya":8863,"Ġwaqra":8864,"Ġqullqiyuq":8865,"Ġunquyqa":8866,"ĠsutÊ¼":8867,"ĠXI":8868,"ĠNieto":8869,"kusqanmanta":8870,"ĠBible":8871,"ĠÃ±aupaq":8872,"Ġimaymanakuna":8873,"Llimanta":8874,"kunqaku":8875,"ĠPortillo":8876,"ĠHuÃ±up":8877,"ĠRusya":8878,"Ġllimphiqpas":8879,"ĠJosefa":8880,"muyuntin":8881,"JesÃºs":8882,"ĠAllpamanta":8883,"Ġankallis":8884,"Harry":8885,"ristoph":8886,"ĠSamuel":8887,"ĠPawqartampu":8888,"ĠBorja":8889,"ĠBlanco":8890,"ĠUtishi":8891,"ĠCentro":8892,"CION":8893,"ĠPushak":8894,"Ġimaynachus":8895,"ĠSuiza":8896,"Griguryu":8897,"klahoma":8898,"ĠMegantoni":8899,"ĠDolores":8900,"ĠEsperanza":8901,"umboldt":8902,"ĠSmith":8903,"ĠBilingue":8904,"117":8905,"113":8906,"Do":8907,"For":8908,"Hur":8909,"IspaÃ±ul":8910,"Mur":8911,"Pall":8912,"Suwi":8913,"ft":8914,"gÃ¼":8915,"qunku":8916,"wayuq":8917,"yas":8918,"Äī":8919,"Ġç":8920,"Ġob":8921,"Ġaqha":8922,"anmanta":8923,"piyu":8924,"pichu":8925,"ingen":8926,"kunami":8927,"mira":8928,"wap":8929,"tiq":8930,"mando":8931,"Ġhak":8932,"ĠAch":8933,"ĠCay":8934,"ĠMul":8935,"mantas":8936,"Ġsimillapi":8937,"Ġsimikunata":8938,"chika":8939,"Ġkich":8940,"ĠLey":8941,"ĠQiru":8942,"ĠBran":8943,"ĠWaqa":8944,"ĠRec":8945,"ĠIÃ±":8946,"Ġqasi":8947,"ĠChristian":8948,"Ġyachanapaq":8949,"Ġmanchakuy":8950,"arikuna":8951,"ĠDistritu":8952,"Ġaypa":8953,"ĠEva":8954,"coma":8955,"cata":8956,"cade":8957,"uchk":8958,"tega":8959,"hai":8960,"ĠVan":8961,"ĠVol":8962,"bros":8963,"Ġrimayqa":8964,"uÃ±usqa":8965,"ĠhayÃ±in":8966,"peqa":8967,"Ġurqukunapi":8968,"Ġuyariy":8969,"Ġpaymanta":8970,"Ġ49":8971,"Ġhinantin":8972,"ykimanta":8973,"unqaku":8974,"Ġmikhuspa":8975,"ĠChuqi":8976,"ayupaya":8977,"Ġsaywan":8978,"Isqun":8979,"dades":8980,"hanu":8981,"Ġkasqanku":8982,"ĠCopa":8983,"Ġsaqill":8984,"Ġkamachiyman":8985,"Ġruruchinam":8986,"à¤°":8987,"Ġuyaris":8988,"Wayra":8989,"Ġatiyninta":8990,"Ġwakichi":8991,"ĠÎĳ":8992,"Hugo":8993,"Ġpampapi":8994,"chejta":8995,"Ġkanmanchu":8996,"Ġwasinta":8997,"ĠVald":8998,"ysespa":8999,"ĠRamos":9000,"iraw":9001,"Kaws":9002,"Ġtantasqa":9003,"Ġllimphisqan":9004,"ĠLlika":9005,"ĠTarma":9006,"kuptinqa":9007,"dunisya":9008,"ĠæĿ":9009,"atriz":9010,"ĠAthina":9011,"ĠJacinto":9012,"ĠPuntifisya":9013,"ĠBlanca":9014,"ariwanaqucha":9015,"ĠJaruma":9016,"Rikcha":9017,"ĠArhintinap":9018,"ĠJackson":9019,"Alli":9020,"Ham":9021,"Ilanda":9022,"Kaska":9023,"Lim":9024,"Qam":9025,"Qal":9026,"Que":9027,"QSHKS":9028,"Tupi":9029,"Ulimpiku":9030,"apiqa":9031,"cur":9032,"kt":9033,"ms":9034,"nej":9035,"oa":9036,"vg":9037,"ÅĦ":9038,"cherqa":9039,"pital":9040,"Ġsaman":9041,"kupampa":9042,"mansi":9043,"Ġwate":9044,"kamanta":9045,"ĠPri":9046,"ĠPul":9047,"usuma":9048,"ĠAu":9049,"Ġchik":9050,"Ġchuntu":9051,"Ġchuku":9052,"ĠCli":9053,"ĠMara":9054,"ĠMolina":9055,"ĠLusiya":9056,"ĠQun":9057,"ĠBas":9058,"ĠBla":9059,"ĠWolf":9060,"taqsi":9061,"atro":9062,"ĠChuru":9063,"ĠChaqa":9064,"ĠTen":9065,"ĠTinkurachina":9066,"sio":9067,"Ġkanapaq":9068,"Ġkananku":9069,"ĠJon":9070,"Chill":9071,"ĠDom":9072,"Ġqhep":9073,"uria":9074,"ÃŃy":9075,"Ġ1926":9076,"Ġkawsanqa":9077,"ĠwaÃ±uq":9078,"Ġyupana":9079,"Ġpila":9080,"ĠNÂº":9081,"Ġmunanmi":9082,"imondi":9083,"ikana":9084,"rande":9085,"ĠMax":9086,"Ġwakmanta":9087,"Ġmayukunap":9088,"Ġkutichi":9089,"Ġatipa":9090,"oqo":9091,"Ġniyan":9092,"bora":9093,"Ġukt":9094,"Ġ150":9095,"parisqa":9096,"ĠHugo":9097,"Rimana":9098,"Ġ04":9099,"ĠGuay":9100,"ĠSeÃ±ora":9101,"biÃ³":9102,"ĠLeguÃŃa":9103,"Ġkasu":9104,"Huay":9105,"Ġruraykamay":9106,"Ġnisqanqa":9107,"Ġsaphin":9108,"ublin":9109,"likula":9110,"ĠJesusman":9111,"Ġnispanku":9112,"Ġmaqanakuypi":9113,"ĠSilanda":9114,"Ġchallwam":9115,"ĠVictor":9116,"à¦¾":9117,"Ġwillakuykuna":9118,"Ġqhelli":9119,"ĠGonzalo":9120,"umbia":9121,"ĠWasiq":9122,"Leon":9123,"Ã§ois":9124,"fectura":9125,"ĠMosoq":9126,"Ġcasara":9127,"Takichaq":9128,"ĠRivero":9129,"Î¼Î±":9130,"ĠRomÃ¡n":9131,"Taripay":9132,"ĠChantapis":9133,"ĠWitn":9134,"ĠChukuwitu":9135,"ĠWamachuku":9136,"ĠBenavides":9137,"useppe":9138,"Ac":9139,"Aliman":9140,"FNT":9141,"Mach":9142,"Pus":9143,"Pur":9144,"Pablo":9145,"Wach":9146,"itin":9147,"kina":9148,"ns":9149,"pti":9150,"tanta":9151,"wasun":9152,"xford":9153,"ykipi":9154,"Ġ$":9155,"llÃŃn":9156,"Ġkulunya":9157,"arus":9158,"Ġshina":9159,"waqa":9160,"yaqa":9161,"Ġ()":9162,"Ġllaqtapa":9163,"llaqa":9164,"kachaq":9165,"Ġquq":9166,"tuliku":9167,"Ġkapu":9168,"ĠPuente":9169,"ĠCami":9170,"ĠSing":9171,"Ġregi":9172,"ĠManta":9173,"ulta":9174,"Ġrunakunatam":9175,"ĠKy":9176,"ĠKaru":9177,"entos":9178,"enze":9179,"ĠLom":9180,"Ġ\"Â¿":9181,"alit":9182,"Ġkaykunata":9183,"ĠReg":9184,"qulla":9185,"quipa":9186,"anachiy":9187,"ĠTuru":9188,"ĠTimo":9189,"ĠThomas":9190,"siyan":9191,"Chunta":9192,"ĠDur":9193,"Ġ1913":9194,"achispa":9195,"achkaq":9196,"Ġyupaymi":9197,"Ġkaqniyuq":9198,"1939":9199,"ĠNap":9200,"impu":9201,"sapam":9202,"Ġrimaykunamanta":9203,"Kayman":9204,"ayninku":9205,"Kachi":9206,"Ġ51":9207,"Ġ55":9208,"ĠOri":9209,"kholm":9210,"kusaq":9211,"ĠChil":9212,"raykutaq":9213,"Ġwillana":9214,"ĠRod":9215,"ĠRib":9216,"edes":9217,"Ġunuta":9218,"And":9219,"ĠDiospaq":9220,"unqaq":9221,"Ġrimaqa":9222,"Ġban":9223,"pintu":9224,"hinam":9225,"aykita":9226,"ĠPardo":9227,"kunamanpas":9228,"Ġsutinpi":9229,"Ġtaripan":9230,"Ġyupaykamaqa":9231,"raqchu":9232,"unchaykuna":9233,"Rima":9234,"ĠCocha":9235,"ĠSearch":9236,"Ġqullqita":9237,"Ġwawamanta":9238,"Ġ1943":9239,"ĠXIV":9240,"ĠMont":9241,"Ġchaskiq":9242,"Ġtuktun":9243,"ĠAmpatu":9244,"Ġefec":9245,"Ġruwanku":9246,"Ġkallpachasqa":9247,"grafÃŃa":9248,"Ġmaqanakuyta":9249,"Ġ1906":9250,"Unquy":9251,"Franz":9252,"Ġkhuy":9253,"ĠOrtiz":9254,"Ġpasaq":9255,"Ġukumari":9256,"winu":9257,"port":9258,"ĠAlfonso":9259,"UNARI":9260,"ĠEdward":9261,"Ġyarqay":9262,"Ġpatma":9263,"ĠSalazar":9264,"ulgarya":9265,"Ġsiwk":9266,"ĠQUFNT":9267,"tockholm":9268,"Ġcuerpo":9269,"ÐµÐ²Ð¸Ñĩ":9270,"Ãºblica":9271,"ĠEuropa":9272,"sterdam":9273,"Ã¡zquez":9274,"ĠValdÃ©s":9275,"-)":9276,"112":9277,"116":9278,"Aq":9279,"BN":9280,"Binidiktu":9281,"Des":9282,"Ol":9283,"Siq":9284,"SAY":9285,"ahinataq":9286,"gang":9287,"iman":9288,"itu":9289,"iriy":9290,"mbi":9291,"rÃ³n":9292,"sar":9293,"Ïĩ":9294,"Ð¿":9295,"Ø²":9296,"à±":9297,"aqo":9298,"wakin":9299,"tit":9300,"Ġllat":9301,"Ġnec":9302,"Ġkampi":9303,"ĠCutervo":9304,"ĠSel":9305,"ĠSuch":9306,"ĠShan":9307,"Ġhukkuna":9308,"urd":9309,"Ġsimitapas":9310,"illim":9311,"eron":9312,"erci":9313,"chila":9314,"ĠKÃ¶":9315,"Ġ-,":9316,"ĠUllantaytampu":9317,"ĠBet":9318,"ĠRuq":9319,"ĠChumpiwillka":9320,"Ġ250":9321,"chum":9322,"simin":9323,"arim":9324,"ariku":9325,"ĠGib":9326,"Ġ1931":9327,"didi":9328,"1933":9329,"ĠFIFA":9330,"data":9331,"tea":9332,"unchawniyki":9333,"Ġley":9334,"vie":9335,"Ġ1821":9336,"ĠInkarrÃŃ":9337,"ataqa":9338,"Ġyachachirqan":9339,"Ġhinaqtin":9340,"ĠWikipidiyap":9341,"Ġanchatam":9342,"Ġruwaspa":9343,"Ġrimarqan":9344,"Inter":9345,"ĠPav":9346,"Ġqallarirqa":9347,"tho":9348,"ther":9349,"talyanu":9350,"ankar":9351,"kunannaq":9352,"Ġkuyuchina":9353,"ingÃ¼":9354,"ĠCota":9355,"ĠWayra":9356,"Ġtiyana":9357,"Ġwawata":9358,"ĠXIII":9359,"drÃ©":9360,"Ġamachaqmi":9361,"phia":9362,"ugh":9363,"Ġqillqar":9364,"ĠÃĹ":9365,"Tiksi":9366,"ĠQillqata":9367,"ĠWaranqa":9368,"ĠKamachina":9369,"Ġtakya":9370,"Ġwamanipi":9371,"ikrasqakuna":9372,"Ġwillakuykunata":9373,"Ġkawpaq":9374,"Ġqurakunam":9375,"ykichista":9376,"Ġwayllukuqpas":9377,"Ġmirachiy":9378,"Takiq":9379,"ĠMamallaqtap":9380,"ĠMinistru":9381,"Ġnacion":9382,"Ġwamink":9383,"ĠLliwmanta":9384,"Ġsanancha":9385,"ĠIsidro":9386,"Ġgobi":9387,"mphiq":9388,"Ġpaqariy":9389,"ĠjudÃŃo":9390,"Af":9391,"Bu":9392,"Giles":9393,"Huan":9394,"Kuru":9395,"Mak":9396,"Pre":9397,"Yunka":9398,"cc":9399,"geo":9400,"oza":9401,"vir":9402,"anwan":9403,"anchu":9404,"antan":9405,"piÃ±a":9406,"inchasqa":9407,"inÃ©":9408,"isyu":9409,"Ġsamin":9410,"yulin":9411,"rick":9412,"manhina":9413,"Ġninki":9414,"ukilla":9415,"kacha":9416,"Ġqukun":9417,"ĠPampas":9418,"ushan":9419,"raeli":9420,"ĠSutisuyu":9421,"Ġwatapaq":9422,"ulkan":9423,"ĠaÃ±aw":9424,"Ġrunallap":9425,"chikuspa":9426,"ĠKho":9427,"ĠHip":9428,"ĠHum":9429,"ĠHit":9430,"ĠHATUN":9431,"awariy":9432,"osis":9433,"ospa":9434,"ĠBall":9435,"ĠBab":9436,"arqani":9437,"ĠIru":9438,"ĠIspa":9439,"ĠIraq":9440,"Ġqapar":9441,"ĠTiq":9442,"ĠTuku":9443,"ĠPilichuku":9444,"Ġtel":9445,"Ġtsay":9446,"Ġmanaraqmi":9447,"kamataq":9448,"Chin":9449,"ulio":9450,"Ġ1912":9451,"omwe":9452,"Ġmanachu":9453,"Ġtiw":9454,"ikraq":9455,"ĠFaj":9456,"olk":9457,"aytapas":9458,"Ġimam":9459,"Ġquchakunapi":9460,"guÃŃn":9461,"leg":9462,"achakuy":9463,"Ġpaykunawan":9464,"Ġhamurqan":9465,"ecn":9466,"âĨĴ":9467,"Ġchakran":9468,"thony":9469,"ĠwiÃ±ari":9470,"Ġpusaqsi":9471,"ĠKachi":9472,"ĠCarri":9473,"geni":9474,"Chimpu":9475,"illaykuna":9476,"Ġpuriri":9477,"Ġchaymantapas":9478,"amiy":9479,"2017":9480,"rquez":9481,"1944":9482,"ĠSoto":9483,"tros":9484,"Ġ1933":9485,"Romanu":9486,"Ġwasinman":9487,"ĠAbel":9488,"Ġyachachiqkuna":9489,"ĠAwqa":9490,"chunchu":9491,"Ġnispan":9492,"ĠPukllay":9493,"Esc":9494,"Antawaylla":9495,"Ġcheqa":9496,"ĠCampero":9497,"ĠRuman":9498,"ĠKarl":9499,"aroa":9500,"ĠWasin":9501,"Ġunquq":9502,"ÙħØ¯":9503,"ayniyku":9504,"ĠAugust":9505,"Ġkamarisqam":9506,"ĠClara":9507,"ĠKatari":9508,"Tarija":9509,"UYU":9510,"Ġinstitu":9511,"ĠEmilio":9512,"ĠKantarawi":9513,"ĠHidalgo":9514,"Ġrurunkunatam":9515,"ĠBuenaventura":9516,"istoria":9517,"Ġphax":9518,"Ġsacerdote":9519,"ĠFajardo":9520,"110":9521,"114":9522,"250":9523,"ECH":9524,"Hir":9525,"ILL":9526,"RO":9527,"SE":9528,"Sta":9529,"Ukhu":9530,"Ven":9531,"Waruchiri":9532,"ai":9533,"bÃ¡n":9534,"fina":9535,"klaw":9536,"ou":9537,"pariy":9538,"sz":9539,"xt":9540,"yec":9541,"zal":9542,"à·":9543,"taw":9544,"Ġkulun":9545,"riano":9546,"manuel":9547,"manjina":9548,"Ã±ar":9549,"ĠPet":9550,"ĠPed":9551,"ĠAtalaya":9552,"ĠClau":9553,"ĠSco":9554,"Ġhukchan":9555,"ĠMuna":9556,"iqisqa":9557,"Ġatina":9558,"Ġrir":9559,"Ġitalyanu":9560,"ĠHong":9561,"ĠLuna":9562,"ĠUyun":9563,"ĠUqshapampa":9564,"atana":9565,"ĠChupa":9566,"ĠTos":9567,"ĠTro":9568,"ĠTab":9569,"ĠTrinidad":9570,"tinpas":9571,"kamapas":9572,"ĠYam":9573,"Ġ1911":9574,"Ġkawsasqan":9575,"Ã³d":9576,"Ġpikunachus":9577,"1931":9578,"sqam":9579,"chispi":9580,"Ġmiku":9581,"ĠAnne":9582,"ĠEj":9583,"irisa":9584,"Ġtimpu":9585,"olÃ³gi":9586,"Ġaswantaq":9587,"uÃ±uwa":9588,"Ġpukllan":9589,"Ġisanka":9590,"videncia":9591,"Ġ1825":9592,"Ġcris":9593,"ayaqaqa":9594,"itikunapi":9595,"Ġruraspa":9596,"Ġpuquch":9597,"Ġkachar":9598,"Ġpusam":9599,"Ġwarmipas":9600,"ĠRima":9601,"Ġmarkapipas":9602,"shimi":9603,"Ġwatakamas":9604,"tales":9605,"Ġtarpuq":9606,"Ġukyan":9607,"ĠCarta":9608,"Chiki":9609,"Ġmaskh":9610,"Asya":9611,"anchayniyki":9612,"Ġruraqqa":9613,"awili":9614,"Ġlichi":9615,"ĠInkakuna":9616,"Ġqatiy":9617,"ĠÃĳuqa":9618,"uerte":9619,"saywaman":9620,"áĥĶ":9621,"Ġminuy":9622,"ĠUrb":9623,"Ġ=>":9624,"Ġchallwakunam":9625,"Ġtantanakuymi":9626,"Ġpalamakunam":9627,"Ġhurquy":9628,"eves":9629,"Ġmasichakuq":9630,"Diosqa":9631,"edellÃŃn":9632,"Ġlluqsiy":9633,"Ġchinchayninpi":9634,"ĠMarkapumaqucha":9635,"ĠAtlantiku":9636,"Huwanpa":9637,"Ġrawrana":9638,"ĠUywa":9639,"zonas":9640,"ĠMerced":9641,"ĠPirwa":9642,"ĠWitnam":9643,"PerÃº":9644,"ĠMiranda":9645,"qiptu":9646,"Aranway":9647,"Ġnillarqan":9648,"118":9649,"Atawallpa":9650,"AÃ±askitu":9651,"Dan":9652,"Hy":9653,"IK":9654,"Ke":9655,"Lar":9656,"PD":9657,"Qul":9658,"Shu":9659,"Tom":9660,"Uruwayi":9661,"bor":9662,"bia":9663,"iz":9664,"kel":9665,"pes":9666,"pani":9667,"panakuy":9668,"vÃ¡":9669,"Ãļ":9670,"Ġ01":9671,"Ġcol":9672,"anchi":9673,"anqanku":9674,"ayay":9675,"inri":9676,"aqkunaqa":9677,"Ġpuna":9678,"Ġllip":9679,"rimana":9680,"chakunata":9681,"llakuna":9682,"llaman":9683,"Ġqur":9684,"Ġkatari":9685,"usto":9686,"usapa":9687,"ĠAsi":9688,"ĠCentral":9689,"ĠCambridge":9690,"ĠSp":9691,"ĠStan":9692,"ĠSukumpiyu":9693,"apaya":9694,"ĠsimiËĲ":9695,"Ġ120":9696,"Ġrunamanta":9697,"ĠKAW":9698,"Ġiwru":9699,"entro":9700,"ĠHard":9701,"ĠLud":9702,"esti":9703,"Ġsimipitaq":9704,"ĠUl":9705,"Ġkaytaqa":9706,"ĠBol":9707,"ĠBatallas":9708,"ĠWo":9709,"ĠWisq":9710,"anakuspa":9711,"mayta":9712,"elos":9713,"ĠJun":9714,"Churin":9715,"Ġchaypin":9716,"ipu":9717,"Ġkaqrayku":9718,"ĠNurwiga":9719,"tambo":9720,"Ġmichiq":9721,"Ã©ctor":9722,"ĠAndes":9723,"ĠAnaniya":9724,"ĠFal":9725,"Ġhawapi":9726,"arati":9727,"Ġkamariq":9728,"bras":9729,"iymanta":9730,"Ġcamp":9731,"ĠSimipi":9732,"rison":9733,"acas":9734,"Ġqhapaqninsi":9735,"chanchik":9736,"Ġhamuspa":9737,"Ġamawta":9738,"Pitaq":9739,"loy":9740,"vaca":9741,"Ġrikuchiq":9742,"ĠAlta":9743,"Chaypi":9744,"Ġrimakuna":9745,"Ġrimarqanku":9746,"ĠChuqui":9747,"ĠCarolina":9748,"riyku":9749,"ikacha":9750,"Ġtiksisqan":9751,"Richard":9752,"ĠComi":9753,"hard":9754,"rqucha":9755,"aykupaq":9756,"neq":9757,"ĠMario":9758,"Ġmuyup":9759,"Ġqatiqninmi":9760,"ĠSouth":9761,"ment":9762,"ĠColomb":9763,"elio":9764,"ĠwaÃ±uchiy":9765,"ĠBetan":9766,"ĠBearn":9767,"ĠÃ±akÊ¼":9768,"rosby":9769,"Ġnisyu":9770,"Ġphuru":9771,"Ġqoy":9772,"Ġqanchisniyuq":9773,"ĠMadridpi":9774,"ffer":9775,"ĠPacheco":9776,"ĠInlatirrapi":9777,"ĠJohnson":9778,"arrollo":9779,"Ġquwi":9780,"ĠCabrera":9781,"dolf":9782,"Ġmirachiq":9783,"ĠFerr":9784,"Ġonqoy":9785,"ĠKamayoq":9786,"Ġjayk":9787,"ĠCaracas":9788,"uminikana":9789,"Ġshuti":9790,"Ġchimlasayta":9791,"Ġruphay":9792,"ĠBenedic":9793,"ĠHusiy":9794,"ĠFriedrich":9795,"chuqalla":9796,"ĠQulcha":9797,"ĠespaÃ±ol":9798,"Ġtaruka":9799,"ĠQuispe":9800,"Ã³lito":9801,"atherine":9802,"?),":9803,"EL":9804,"Flora":9805,"IQ":9806,"Pat":9807,"Tor":9808,"UCH":9809,"Yaqa":9810,"bri":9811,"cara":9812,"fino":9813,"ii":9814,"murqan":9815,"nill":9816,"rÃŃa":9817,"vej":9818,"vimiento":9819,"waspa":9820,"ðĲ":9821,"anankupaq":9822,"llayuq":9823,"isus":9824,"mam":9825,"Ġseg":9826,"Ġsati":9827,"Ġplan":9828,"pachan":9829,"llawaya":9830,"Ġnawa":9831,"ukunan":9832,"Ġqusan":9833,"Ġkapita":9834,"ĠPuri":9835,"ĠPre":9836,"ĠAM":9837,"ĠApuy":9838,"ĠArika":9839,"ĠCos":9840,"ĠCali":9841,"ĠSiq":9842,"ĠSuqta":9843,"ĠMusiku":9844,"Ġpala":9845,"ĠKach":9846,"pasa":9847,"paschu":9848,"engua":9849,"Ġsimipiqa":9850,"Ġ--":9851,"ostol":9852,"ĠUtawalu":9853,"ĠQutu":9854,"ĠBulibiya":9855,"ĠWell":9856,"quta":9857,"ory":9858,"orri":9859,"ĠTel":9860,"ĠTambo":9861,"liano":9862,"litar":9863,"Chanka":9864,"Ġasind":9865,"Ġasiru":9866,"lapi":9867,"acho":9868,"ĠAnn":9869,"ĠEliodoro":9870,"umuy":9871,"Ġaswanqa":9872,"Ġhatunkaray":9873,"huya":9874,"chiyasqa":9875,"Ġluq":9876,"ĠIng":9877,")\".":9878,"Ġkachkay":9879,"ĠLluq":9880,"maraka":9881,"loria":9882,"Ġrikukun":9883,"Ġrikukuq":9884,"emin":9885,"isqanta":9886,"ĠWaka":9887,"Ġnini":9888,"ĠQusqupi":9889,"ĠLagos":9890,"ĠEsmeraldas":9891,"Ġsutinmi":9892,"Kamachiq":9893,"Chiri":9894,"Ġqullq":9895,"Rimanakuy":9896,"ĠZh":9897,"ĠReal":9898,"Wamanqa":9899,"Ġatinmanchu":9900,"Ġriqsin":9901,"ĠXX":9902,"garet":9903,"Ġwakichin":9904,"1942":9905,"ĠColÃ³n":9906,"Ġnisqankama":9907,"ĠBella":9908,"foli":9909,"ĠValen":9910,"Ġqocha":9911,"Ġruwaykunata":9912,"Unriya":9913,"Ġllikapi":9914,"culus":9915,"ipisqa":9916,"ĠLlakwash":9917,"Ġpukllaykunapi":9918,"Ġusqhay":9919,"portal":9920,"Ġqayllay":9921,"uther":9922,"ARUNARI":9923,"Ġhanja":9924,"Ġwisnu":9925,"Ġromanu":9926,"Ġwayllukuqsi":9927,"ĠSuysa":9928,"ĠSawud":9929,"Allqu":9930,"Ġwaqlliy":9931,"Ġqallawam":9932,"ayniykichik":9933,"llaktata":9934,"Ġhawka":9935,"Ġsumaj":9936,"ĠEditorial":9937,"Ġchimlasay":9938,"ĠJosuÃ©":9939,"ĠYACHAQ":9940,"ĠInstituto":9941,"Ġkhuruq":9942,"Ġsintomas":9943,"ĠØ¹Ø¨":9944,"ĠIndependencia":9945,"ĠCaballero":9946,"CUARUNARI":9947,"Ġiwrupiyu":9948,"%)":9949,"(*":9950,"115":9951,"650":9952,"AL":9953,"Apo":9954,"Atuq":9955,"Bor":9956,"DU":9957,"FC":9958,"IL":9959,"Kuti":9960,"Mik":9961,"Pul":9962,"Panama":9963,"Qill":9964,"Ros":9965,"Sill":9966,"Sip":9967,"Sinchi":9968,"Suma":9969,"Sunqu":9970,"Tim":9971,"Wanta":9972,"Yawa":9973,"cÃ¡n":9974,"dra":9975,"ee":9976,"eus":9977,"hara":9978,"ocia":9979,"tta":9980,"uptin":9981,"yuna":9982,"zona":9983,"Ã¥":9984,"Ãĵ":9985,"ÇĲ":9986,"Ð±":9987,"Ñħ":9988,"llino":9989,"inea":9990,"Ġkrus":9991,"asanku":9992,"Ġsaj":9993,"Ġsham":9994,"tiri":9995,"Ġlluk":9996,"mante":9997,"llalla":9998,"Ġqulla":9999,"Ġnisqas":10000,"kichiy":10001,"ĠAman":10002,"ĠAjina":10003,"ĠAtuq":10004,"Ġchanka":10005,"Ġmak":10006,"Ġmaqa":10007,"ĠSapan":10008,"ĠSinti":10009,"ĠStockholm":10010,"ĠMB":10011,"Ġrunallaqta":10012,"ĠKaq":10013,"Ġiwan":10014,"este":10015,"lim":10016,"arirqan":10017,"urice":10018,"ĠGros":10019,"Ġ1910":10020,"1930":10021,"uchuy":10022,"ĠFÃ©lix":10023,"dagas":10024,"huta":10025,"Ġjatu":10026,"ĠÃ±awikaruy":10027,"ullku":10028,"kunappas":10029,"Ġcu":10030,"achata":10031,"unturiri":10032,"Ġyachachispa":10033,"Ġkarun":10034,"uez":10035,"Ġpaypaq":10036,"kusunchik":10037,"Ġ48":10038,"Ġhinapas":10039,"Ġwillasqan":10040,"Ankash":10041,"ĠYachaypi":10042,"Ġbal":10043,"Ġbac":10044,"egas":10045,"Alto":10046,"ĠâĢĵÂ¡":10047,"ĠManaraq":10048,"Ġsayk":10049,"Ġger":10050,"resti":10051,"Waqay":10052,"pora":10053,"anchaynin":10054,"Ġruraqkuna":10055,"Ġrunasta":10056,"Ġqullqichakuy":10057,"Ġwawakunata":10058,"ĠCornelio":10059,"ĠÐĳ":10060,"ĠÐŁ":10061,"Mariscal":10062,"CHIS":10063,"Ġkashas":10064,"Ġkayninmanta":10065,"ĠAyacucho":10066,"Ð¸Ð½":10067,"Ġmunanki":10068,"1955":10069,"1940":10070,"1943":10071,"1947":10072,"Ġlluqsim":10073,"carral":10074,"ĠRaÃºl":10075,"Î¿Î»":10076,"Î¿Ïħ":10077,"Ġrakiquna":10078,"Ġallichay":10079,"Ġmikhunapaq":10080,"Kichka":10081,"usqanta":10082,"Pukara":10083,"Ġsiminta":10084,"Ġkawpay":10085,"Ġchayamun":10086,"ĠWikibooks":10087,"Ġqolq":10088,"ĠWaskaran":10089,"ĠAqumayu":10090,"Â».":10091,"Ġllakisqa":10092,"ĠCÃ¡r":10093,"Chilipi":10094,"ĠSaywapi":10095,"Ġmillma":10096,"ĠLucÃŃa":10097,"ĠYakuma":10098,"ĠJehovamanta":10099,"ĠUyuni":10100,"watsuyu":10101,"ĠNasyunkunap":10102,"ĠRunasimipi":10103,"Ġchaninchay":10104,"Chiksuyu":10105,"ĠPachaykamaypi":10106,"ĠMÃ¡rquez":10107,"ĠPartidun":10108,"ĠLisboa":10109,"×ķ×":10110,"sillir":10111,"Felipe":10112,"Ġcheyqa":10113,"lasiku":10114,"Ġqhepanta":10115,"illimsay":10116,"DIA":10117,"Federico":10118,"IP":10119,"Kam":10120,"Kimsantin":10121,"Lista":10122,"Mario":10123,"Nurwiga":10124,"Pin":10125,"Pis":10126,"Qiru":10127,"Riq":10128,"Saq":10129,"Sap":10130,"Tanta":10131,"cum":10132,"flora":10133,"gay":10134,"hr":10135,"his":10136,"huy":10137,"ico":10138,"jar":10139,"ken":10140,"koq":10141,"lyn":10142,"py":10143,"qpa":10144,"qusqa":10145,"sisqa":10146,"visiÃ³n":10147,"å¤":10148,"æĸ":10149,"anos":10150,"ller":10151,"inkuna":10152,"Ġpoli":10153,"Ġllakiy":10154,"Ġhas":10155,"pala":10156,"Ġllaqtamantaqa":10157,"llapuni":10158,"kiku":10159,"ĠAcos":10160,"ĠCla":10161,"ameri":10162,"ĠMall":10163,"Ġsimikunamanta":10164,"Ġmuk":10165,"Ġmuqu":10166,"Ġ101":10167,"Ġrip":10168,"Ġrunasimin":10169,"Ġsuyukunamanta":10170,"ĠKuna":10171,"Ġwaran":10172,"ĠHir":10173,"ĠLes":10174,"esto":10175,"ĠUta":10176,"ĠQal":10177,"Ġkaykunaqa":10178,"ĠBag":10179,"ĠIS":10180,"ĠIta":10181,"ĠChunta":10182,"lita":10183,"Ġthak":10184,"arias":10185,"apaqmi":10186,"Ġllaqtanta":10187,"Ġ1900":10188,"rock":10189,"Ġayni":10190,"kunapitaq":10191,"Ġmikhu":10192,"irÃ¡":10193,"ĠFar":10194,"ĠFra":10195,"Ġimappas":10196,"Ġurpi":10197,"Ġrimaykunata":10198,"Ġismuy":10199,"ĠChaywanpas":10200,"ĠWillakuy":10201,"Ġ1899":10202,"ayninmi":10203,"apata":10204,"Ġkawsayniyuq":10205,"Ġwarmita":10206,"Ġpaykunaq":10207,"Ġhamusqa":10208,"Ġamachay":10209,"Ãºa":10210,"Ġtukuyta":10211,"Ġ.-":10212,"Ġnihun":10213,"Ġrikurin":10214,"Ġ69":10215,"ĠAlar":10216,"aqapampa":10217,"ĠYachaywasi":10218,"ĠPadre":10219,"talvo":10220,"ĠKamana":10221,"Ġmunarqa":10222,"ĠIsland":10223,"ispillu":10224,"awana":10225,"anchayta":10226,"andra":10227,"ĠGuerr":10228,"umirqucha":10229,"ĠArias":10230,"quechua":10231,"Martin":10232,"ĠXV":10233,"Ġrepublika":10234,"Ġqhipaqnin":10235,"Ġkallpasapa":10236,"ĠWankapampa":10237,"ĠarÃŃ":10238,"ambuya":10239,"aqtintaq":10240,"Ġllaqtanchik":10241,"rasco":10242,"ĠDyusta":10243,"grama":10244,"Ġyacharqan":10245,"Ġpuriqlla":10246,"Mayutata":10247,"ĠSeÃ±orpa":10248,"ungun":10249,"Ġwawq":10250,"Ġcaus":10251,"Ġusus":10252,"ĠJulia":10253,"ĠKupam":10254,"Ġwisn":10255,"dislao":10256,"Jesusqa":10257,"Ġpaqtachay":10258,"Äģn":10259,"Ġapaykachay":10260,"ĠwillaÃ±iqip":10261,"Uywakuna":10262,"Ġyawrim":10263,"ĠTaylor":10264,"ĠPunata":10265,"Ġteqsi":10266,"ĠEsteb":10267,"ĠChawin":10268,"ĠPirqapi":10269,"ĠNapurunakunam":10270,"ĠkÊ¼acha":10271,"ĠAbraham":10272,"ĠIndÃŃgen":10273,"ĠAchachilla":10274,"Ġumallinamanta":10275,"ĠYawatisuyupi":10276,"Reserva":10277,"llinois":10278,"Aman":10279,"Ala":10280,"Cata":10281,"California":10282,"CÃ©sar":10283,"Huklla":10284,"IR":10285,"ICH":10286,"Kanta":10287,"Kiru":10288,"Putu":10289,"QH":10290,"Ruray":10291,"Suwisa":10292,"TO":10293,"Thomas":10294,"Wuliwiya":10295,"]\"":10296,"bru":10297,"gul":10298,"gli":10299,"gia":10300,"hem":10301,"kway":10302,"kista":10303,"laya":10304,"puka":10305,"zÃ¡":10306,"Ãª":10307,"Ø¬":10308,"à¨":10309,"à¬":10310,"mitru":10311,"Ġsat":10312,"Ġsak":10313,"rita":10314,"Ġ(+":10315,"pac":10316,"Ġllaqtakunata":10317,"Ġwal":10318,"Ġwachu":10319,"kamun":10320,"Ġkacha":10321,"ĠPol":10322,"rama":10323,"kie":10324,"Ġmarq":10325,"ĠCity":10326,"amÃ¡n":10327,"apest":10328,"ĠMt":10329,"ĠMÃ©ndez":10330,"uris":10331,"onpa":10332,"Ġripurqan":10333,"endo":10334,"ĠHor":10335,"ĠUgar":10336,"ĠBusta":10337,"astika":10338,"ĠIv":10339,"anaman":10340,"kuymi":10341,"Ġyakun":10342,"asqayki":10343,"sima":10344,"Ġkansillir":10345,"apaqpas":10346,"Chull":10347,"Chuku":10348,"Chaka":10349,"cica":10350,"lag":10351,"Ġmundial":10352,"ĠAnna":10353,"Ġallpata":10354,"cago":10355,"Ġtuq":10356,"ĠFederico":10357,"umaqucha":10358,"wich":10359,"ĠwaÃ±usqaÃ±a":10360,"ĠVa":10361,"Ġimas":10362,"Ġimamanta":10363,"lupi":10364,"Ġ//":10365,"Ġrimaytam":10366,"Ġrimaykunaqa":10367,"Ġyachaynin":10368,"Ġ53":10369,"peraciÃ³n":10370,"urinam":10371,"Ġnispam":10372,"cea":10373,"Ġatikun":10374,"chananpaq":10375,"Ãºdez":10376,"ĠRoca":10377,"lisa":10378,"Ġrikuchiy":10379,"Ġawasqa":10380,"kunamanqa":10381,"ĠKapinuta":10382,"Ġchakrata":10383,"Isla":10384,"awantin":10385,"ĠRunaqa":10386,"Ayti":10387,"podium":10388,"ĠWayana":10389,"Ġ05":10390,"Ġtukukuy":10391,"Ġquyllurmi":10392,"Ġakllan":10393,"hein":10394,"Ġkankuman":10395,"Ġwawakunapaq":10396,"vard":10397,"Ġchuraspa":10398,"Ã±iqin":10399,"Ġchinkan":10400,"Ġwakichisqa":10401,"enico":10402,"formula":10403,"ĠMayo":10404,"Ġjinata":10405,"Iskaynintin":10406,"Ġ1932":10407,"ĠTiwanaku":10408,"ĠQupaq":10409,"grad":10410,"ÐµÑĩ":10411,"Ġprofe":10412,"Ġ1907":10413,"Ġkhuska":10414,"Ġqispisqa":10415,"ĠAwsanqati":10416,"comunidad":10417,"Ġ1872":10418,"ĠÃ±uÃ±uqkunam":10419,"valo":10420,"Ġharaw":10421,"Moysespa":10422,"ĠInternet":10423,"ĠKaws":10424,"ukunaq":10425,"Ġ1895":10426,"ĠAqupampa":10427,"Ġrinri":10428,"Ġajllasqa":10429,"ĠjapÊ¼":10430,"Ġmayqinkunachus":10431,"ĠChiksuyu":10432,"ĠWilhelm":10433,"Musika":10434,"Marie":10435,"ĠkaÃ±ina":10436,"ustria":10437,"Apuwasinyuq":10438,"ĠMaraÃ±Ã³n":10439,"Ġwatiqaqkuna":10440,"ĠpolÃŃticas":10441,"áĥĺáĥ":10442,"Ġmuyuntinpi":10443,"ĠEspinoza":10444,"ĠMÃ©xico":10445,"ĠQallaw":10446,"ĠJerÃ³nimo":10447,"Ġallauk":10448,"ĠRikina":10449,"ĠBarranca":10450,"ĠVenezia":10451,"Ġsullk":10452,"ĠBermÃºdez":10453,"ĠMargarita":10454,"ĠFirenze":10455,"biÃ³ticos":10456,"ĠColombia":10457,"marakaeri":10458,"ĠØ¹Ø¨Ø¯":10459,"ĠGuerrero":10460,"ĠEstebanta":10461,"ĠBustamante":10462,"Ignacio":10463,"Kita":10464,"Mel":10465,"Mish":10466,"Muqiwa":10467,"Pasta":10468,"QAN":10469,"Runtu":10470,"Rub":10471,"Tab":10472,"bus":10473,"cuna":10474,"cre":10475,"df":10476,"edi":10477,"fÃ¡n":10478,"hal":10479,"hawa":10480,"karu":10481,"sun":10482,"sburg":10483,"Ã½":10484,"Ä±":10485,"Ùģ":10486,"à½":10487,"Ġ<":10488,"qachu":10489,"aychis":10490,"Ġko":10491,"arka":10492,"Ġpap":10493,"Ġpuys":10494,"tiwu":10495,"rikuq":10496,"kullan":10497,"Ġhi":10498,"llatapas":10499,"rusiya":10500,"Ġsusya":10501,"ĠPallqa":10502,"ĠPres":10503,"ĠPlantilla":10504,"ĠPlata":10505,"kiqa":10506,"ĠAbi":10507,"Ġchurinkuna":10508,"ĠSama":10509,"ĠSud":10510,"ĠSatipu":10511,"Ġhukchay":10512,"apunin":10513,"Ġrunakunatapas":10514,"ercio":10515,"chikunku":10516,"chigan":10517,"ĠKaymi":10518,"ĠKacha":10519,"Ġwasa":10520,"enza":10521,"ĠLab":10522,"ĠLatin":10523,"ĠLatina":10524,"ese":10525,"Ġkayniyuq":10526,"ĠRim":10527,"ĠChantÃ¡":10528,"llapis":10529,"ariyta":10530,"ĠJallp":10531,"ChantÃ¡":10532,"Ġchaypim":10533,"uliwi":10534,"ciencia":10535,"Ã¡l":10536,"Ġruman":10537,"ĠuÃ±":10538,"achas":10539,"ĠayÃ±":10540,"Ã³lica":10541,"Ġyupasqa":10542,"Ġpill":10543,"chispaq":10544,"Ã©lica":10545,"wick":10546,"pampilla":10547,"Ġlaru":10548,"Ġini":10549,"viana":10550,"lepis":10551,"chinman":10552,"Ġqhapaqnin":10553,"untumasa":10554,"ĠDiez":10555,"uevo":10556,"kushan":10557,"ĠChico":10558,"ĠChimu":10559,"Ġwillayta":10560,"Ġwillaspa":10561,"ĠRita":10562,"Ġunayta":10563,"Anto":10564,"ankallu":10565,"Ġwayll":10566,"kuspataq":10567,"pinef":10568,"Ġkusiy":10569,"ĠLaur":10570,"ware":10571,"Ġmunapay":10572,"uita":10573,"aliza":10574,"rqun":10575,"enses":10576,"Ġ02":10577,"Ġ130":10578,"aykusqa":10579,"Ġillapa":10580,"ĠÃĳo":10581,"ĠÐļ":10582,"Ġkashaspa":10583,"Manqu":10584,"ĠHinas":10585,"AYKUNA":10586,"ĠAme":10587,"Ġllaqtansi":10588,"ĠIskaynin":10589,"ĠViz":10590,"eralta":10591,"ĠJesusmi":10592,"Ġchimpan":10593,"Ġtantari":10594,"Kunsipsyun":10595,"Ġqhatuq":10596,"Estado":10597,"chikunman":10598,"Ġhurqun":10599,"ĠwaÃ±uchisqa":10600,"ĠHarry":10601,"ĠTawantinsuyup":10602,"ĠTawantinsuyupi":10603,"ĠPurtuyis":10604,"RaÃºl":10605,"llawanchu":10606,"Ġapaykachana":10607,"Ġwiksa":10608,"endÃŃn":10609,"paraÃŃso":10610,"Ġpruwinsiya":10611,"ĠCordero":10612,"Ġá¼":10613,"ĠInternational":10614,"residente":10615,"ĠAntofagasta":10616,"Joseph":10617,"ĠTerry":10618,"Ġministruninmi":10619,"ĠTarapaka":10620,"Ġquchuntin":10621,"ĠCornejo":10622,"ĠLombar":10623,"ECHUA":10624,"pinefrina":10625,"'m":10626,":\"":10627,"Ami":10628,"Bur":10629,"Cons":10630,"Fauna":10631,"Hi":10632,"Ko":10633,"Lak":10634,"Quta":10635,"Rak":10636,"Ruru":10637,"Sun":10638,"Sak":10639,"Supay":10640,"Tr":10641,"WA":10642,"aja":10643,"ema":10644,"frica":10645,"grisya":10646,"greso":10647,"hon":10648,"jp":10649,"jana":10650,"lÃŃn":10651,"muspa":10652,"sall":10653,"Î¾":10654,"Ñĸ":10655,"æĺ":10656,"Ġ>":10657,"piq":10658,"pichus":10659,"inos":10660,"inchaq":10661,"Ġkuk":10662,"Ġkuta":10663,"isun":10664,"kunahina":10665,"Ġsp":10666,"Ġpr":10667,"Ġpaqu":10668,"tik":10669,"Ġllaw":10670,"Ã±al":10671,"Ġllaqtami":10672,"Ġwamaq":10673,"kapa":10674,"ĠAlli":10675,"ĠCul":10676,"ĠSr":10677,"ĠSul":10678,"Ġreg":10679,"Ġrespi":10680,"Ġdia":10681,"ĠMes":10682,"mantachu":10683,"ĠautÃ³noma":10684,"Ġrunapa":10685,"Ġrunawan":10686,"ĠKayta":10687,"Ġim":10688,"ĠHero":10689,"anqara":10690,"esal":10691,"hira":10692,"ĠWara":10693,"ĠRose":10694,"ĠRimaq":10695,"kunkichu":10696,"Ġqawa":10697,"qullu":10698,"ĠTutura":10699,"Chaki":10700,"ĠDen":10701,"Ġqillqapi":10702,"Ġuru":10703,"Ġuchu":10704,"roga":10705,"Ġkaqmi":10706,"190":10707,"1937":10708,"allcha":10709,"ĠNuna":10710,"ĠNarciso":10711,"ref":10712,"ĠEpÃŃstola":10713,"ike":10714,"ĠFray":10715,"Runaqa":10716,"Runakunaqa":10717,"guar":10718,"ĠMartha":10719,"kuqkunapa":10720,"ayninmanta":10721,"ĠInlis":10722,"Ġ54":10723,"peru":10724,"ĠOta":10725,"ĠOax":10726,"ace":10727,"Ġuyan":10728,"Ġuyway":10729,"Ġwarmiwan":10730,"Ġwarmikunata":10731,"pistula":10732,"phen":10733,"anthanu":10734,"Willa":10735,"etti":10736,"iami":10737,"Ġ65":10738,"Ġqhawaq":10739,"Chaynu":10740,"Ġkatiguriyapiqa":10741,"ĠPaula":10742,"ĠYalaman":10743,"ĠÃ±awpaqninmi":10744,"Ġwillakuq":10745,"ĠIsrayil":10746,"unty":10747,"Ġyupayqa":10748,"Ġyupaychay":10749,"Ġyupayninqa":10750,"Ġphisqa":10751,"biri":10752,"bios":10753,"moto":10754,"Ġliber":10755,"Ġlibro":10756,"Ġrisirwapi":10757,"Ġchaskispa":10758,"ĠElÃŃas":10759,"kusqanrayku":10760,"Ġven":10761,"irul":10762,"choa":10763,"ĠDepor":10764,"Ġtukun":10765,"Baccharis":10766,"ristiano":10767,"Ġatiyniyoq":10768,"Sichus":10769,"Ġwaqaychay":10770,"Ġachki":10771,"ĠAbaroa":10772,"Ġpurinanpaq":10773,"ĠAntapampa":10774,"Ġyachanku":10775,"Ġmikhuqmi":10776,"Salmo":10777,"Ġtantanakuyninmi":10778,"Ġsiminmi":10779,"inqaku":10780,"âĢĿ,":10781,"451":10782,"Ġlast":10783,"ĠOslo":10784,"UNKA":10785,"Ø§ÙĦ":10786,"Ġtawna":10787,"ĠAfgan":10788,"Ġchullpa":10789,"tulsuyu":10790,"Ġmillp":10791,"ĠAllqu":10792,"Ġajllay":10793,"Qarwa":10794,"Ġrikcha":10795,"Ġperdon":10796,"ĠPumapampa":10797,"ÏĮÏĤ":10798,"ĠPonce":10799,"AKADEMIEp":10800,"North":10801,"ĠChikichasqa":10802,"Ġajinata":10803,"ĠPaqllun":10804,"ĠWhite":10805,"ĠYACHAQANA":10806,"Pastasa":10807,"Bud":10808,"DA":10809,"Gas":10810,"Liw":10811,"Peru":10812,"Qa":10813,"Turu":10814,"Tinkimuq":10815,"Tarata":10816,"Wisk":10817,"akunatam":10818,"boro":10819,"cash":10820,"cruz":10821,"dero":10822,"dong":10823,"fil":10824,"gy":10825,"iwa":10826,"jal":10827,"syu":10828,"utaq":10829,"wariy":10830,"well":10831,"ypa":10832,"Ì¦":10833,"ÙĤ":10834,"à´":10835,"å·":10836,"Ġ#":10837,"chasun":10838,"unam":10839,"arsuyu":10840,"Ġpana":10841,"Ġprom":10842,"Ġllikan":10843,"riz":10844,"manca":10845,"Ġnasyun":10846,"Ġnesqa":10847,"Ġqell":10848,"ĠPlaza":10849,"ĠAwankay":10850,"ĠSto":10851,"aputu":10852,"uyt":10853,"Ġ117":10854,"ninpiqa":10855,"ĠKol":10856,"ĠKuka":10857,"ĠKAY":10858,"ĠKAQ":10859,"ĠHal":10860,"ĠLand":10861,"hia":10862,"awtis":10863,"aldo":10864,"ĠQimis":10865,"ĠWin":10866,"atem":10867,"ĠChall":10868,"orÃ©":10869,"ĠTr":10870,"ĠTinku":10871,"ĠTantasqa":10872,"Ġyachas":10873,"Ġsutiyoq":10874,"tini":10875,"Ġwatapimanta":10876,"elson":10877,"Ġ1916":10878,"ipan":10879,"ipto":10880,"achinapaq":10881,"antaman":10882,"row":10883,"dif":10884,"ĠwaÃ±urqa":10885,"kunapin":10886,"1934":10887,"Ġmikuy":10888,"puwan":10889,"cole":10890,"collo":10891,"asiri":10892,"chikmanta":10893,"chikpas":10894,"wiÃ±ay":10895,"huanca":10896,"lland":10897,"unchawpa":10898,"unchawniy":10899,"ĠVÃ¡squez":10900,"ĠChaypacha":10901,"Ãĳo":10902,"Ġ180":10903,"Ġ1830":10904,"Ġ1849":10905,"ĠSuyup":10906,"Ġyachayninta":10907,"atas":10908,"Ġraymim":10909,"Ġpusasqan":10910,"Piruwanu":10911,"uruta":10912,"Ġayllukuna":10913,"Ġtiyananqa":10914,"Ġmamallaqtapura":10915,"Ġ64":10916,"Ġqhawarin":10917,"ĠJesuk":10918,"shkay":10919,"Ġwaylla":10920,"ĠWatikanu":10921,"thy":10922,"ĠLajas":10923,"dukuna":10924,"ĠEstra":10925,"Ġapus":10926,"Ġchaymantaqa":10927,"Ġovej":10928,"Ġkamachikuna":10929,"ĠGualberto":10930,"ĠMoxos":10931,"ĠSipi":10932,"Ġatinman":10933,"laso":10934,"Marka":10935,"ribio":10936,"Ġkaspi":10937,"Ġkunris":10938,"kunkum":10939,"Ġkallpayuq":10940,"ĠHinaqtinmi":10941,"Ġyuyayniyuq":10942,"ĠWaraniyi":10943,"ĠMaynas":10944,"tras":10945,"Ġqharip":10946,"Ð¾Ñģ":10947,"Imatataq":10948,"ĠTok":10949,"ĠwaranqachÃ¡":10950,"ĠVidal":10951,"ĠPukarani":10952,"allampam":10953,"Joan":10954,"ĠOrtega":10955,"huahua":10956,"ÐºÐ¾":10957,"Ġpachakwatap":10958,"Ġwankurisqan":10959,"Ġ1898":10960,"ĠFiguero":10961,"Apulu":10962,"Ġmanchakuspa":10963,"Yachachiy":10964,"cayo":10965,"ĠSuwidsuyu":10966,"ĠWawakuna":10967,"Ġthansam":10968,"ÑĥÐ°":10969,"ĠIndihina":10970,"ĠTampupata":10971,"Magdalena":10972,"Ġadj":10973,"arinapaqqa":10974,"Ġwakamayu":10975,"ĠHelena":10976,"ĠDuarte":10977,"ĠKarakas":10978,"Hayk":10979,"ĠKiskachay":10980,"Samuel":10981,"Ġpaqarimurqa":10982,"Ġkinrayninpi":10983,"Ġpantaychu":10984,"ĠHolguÃŃn":10985,"ĠTupisa":10986,"liwrukuna":10987,"ĠKuntisuyus":10988,"Michael":10989,"urkampa":10990,"Ġkichkasapa":10991,"ukillap":10992,"ĠCarriÃ³n":10993,"Ġcrisis":10994,"ĠBenedictus":10995,"Ġrakiqunaqa":10996,"Ġrumantiku":10997,"jpg":10998,"Ati":10999,"Clau":11000,"Ecuador":11001,"Fri":11002,"HuÃ±usqa":11003,"Maria":11004,"OR":11005,"Qupaq":11006,"Raymi":11007,"Sut":11008,"SÃ£o":11009,"Tiq":11010,"akunaqa":11011,"cs":11012,"eqe":11013,"ica":11014,"irus":11015,"kÃ¯":11016,"sispa":11017,"wayta":11018,"Ú©":11019,"à²":11020,"Ġ%-":11021,"anus":11022,"anto":11023,"qata":11024,"llos":11025,"pir":11026,"pisa":11027,"aqana":11028,"arachiq":11029,"Ġpop":11030,"riyta":11031,"kutaq":11032,"manata":11033,"Ã±ur":11034,"Ġllaqtakunaqa":11035,"llama":11036,"Ġquz":11037,"ĠPhu":11038,"Ġnisqamantam":11039,"Ġnisqawanqa":11040,"wani":11041,"rado":11042,"ĠApustul":11043,"ĠchÊ¼":11044,"ĠSaq":11045,"Ġrinku":11046,"Ġmurun":11047,"onne":11048,"Ġrikuyta":11049,"ĠÃ±ust":11050,"erna":11051,"chij":11052,"Ġkichasqa":11053,"Ġimp":11054,"ĠHun":11055,"ĠHumboldt":11056,"ĠLamas":11057,"insya":11058,"ĠQhawan":11059,"ĠWach":11060,"ĠRur":11061,"ĠRed":11062,"ĠIchi":11063,"Ġqapaq":11064,"qupi":11065,"orro":11066,"ĠTunari":11067,"lid":11068,"Ġtuna":11069,"Chall":11070,"town":11071,"Ġchaytaqa":11072,"cides":11073,"ĠYaqa":11074,"Ġqillqakunata":11075,"Ġkawsachi":11076,"Ġuch":11077,"ĠNisqa":11078,"ĠNawa":11079,"ĠNati":11080,"ĠNoqa":11081,"ĠEvo":11082,"coto":11083,"tander":11084,"ĠFuen":11085,"chikpa":11086,"panaykuna":11087,"Ġrimaymanta":11088,"uÃ±una":11089,"ĠChaypiqa":11090,"chinchay":11091,"chinankupaq":11092,"ĠSuyukunapas":11093,"Ġhayku":11094,"Ġyurakunaqa":11095,"rish":11096,"ĠOn":11097,"atakunka":11098,"Ġmayuwan":11099,"Ġkutichiy":11100,"Ġkacharqan":11101,"kusani":11102,"Ġamachanapaq":11103,"taqayta":11104,"etrio":11105,"Ġnitaj":11106,"Ġ600":11107,"itpa":11108,"Ġimayaymi":11109,"pinku":11110,"ampara":11111,"ĠwiÃ±aspa":11112,"Ġukh":11113,"Ġ700":11114,"Ġ97":11115,"duwa":11116,"Ġ84":11117,"umawi":11118,"gencia":11119,"ĠMichel":11120,"Chimpurasu":11121,"aliman":11122,"130":11123,"Ġtikra":11124,"unchaymi":11125,"ĠZac":11126,"punchis":11127,"anchaymanta":11128,"anchayniy":11129,"Ġwallqanqa":11130,"Ġ03":11131,"amil":11132,"NAIE":11133,"asunchis":11134,"ĠPaykunataq":11135,"Ġtiyarqan":11136,"ĠInkap":11137,"ĠXi":11138,"Ġrepar":11139,"kusqanku":11140,"ishka":11141,"kov":11142,"ongreso":11143,"tsiq":11144,"ĠWarnes":11145,"ĠUnidos":11146,"ĠAmsterdam":11147,"seco":11148,"tosÃŃ":11149,"Î±Î½":11150,"Ġyachachiyta":11151,"ĠAwtun":11152,"ĠTikina":11153,"Ġyachasqan":11154,"Copa":11155,"teratura":11156,"ĠOrgani":11157,"ĠMinas":11158,"Ġllapanku":11159,"ĠBibliaqa":11160,"Ġqayllanpi":11161,"Ġchullusqa":11162,"ĠBelÃ©n":11163,"ĠMarkapata":11164,"Ġsarun":11165,"Ġqarayuq":11166,"APAQ":11167,"Ġwarmakuna":11168,"ĠTayhan":11169,"ĠSinru":11170,"kultur":11171,"Ġprefectura":11172,"Mamallaqtapura":11173,"Ã³mulo":11174,"ĠÃ±ukch":11175,"olylepis":11176,"ĠYoung":11177,"ĠEscuela":11178,"Chaqllisinchi":11179,"ĠFrancisca":11180,"ØŃÙħØ¯":11181,"ĠPachakutiq":11182,"ĠTexas":11183,"llaqtanmi":11184,"ociaciÃ³n":11185,"carrald":11186,"ĠQupaqhawana":11187,"Apa":11188,"Achi":11189,"Cab":11190,"Hunt":11191,"HATUN":11192,"Iru":11193,"Jan":11194,"Lor":11195,"Land":11196,"Mul":11197,"NU":11198,"Pach":11199,"Phar":11200,"Quchas":11201,"Sacha":11202,"Tinku":11203,"Waqra":11204,"achirqan":11205,"aÃ±an":11206,"ctu":11207,"dÃ©":11208,"fal":11209,"ges":11210,"iwan":11211,"kari":11212,"ksa":11213,"mur":11214,"panqa":11215,"rente":11216,"sy":11217,"sus":11218,"sina":11219,"tÃ¡n":11220,"vn":11221,"zig":11222,"Äĥ":11223,"à¹":11224,"Ġì":11225,"Ġoq":11226,"Ġver":11227,"ľĶ":11228,"mach":11229,"ase":11230,"asara":11231,"kunakama":11232,"Ġsind":11233,"Ġpri":11234,"ĠpÃ¡":11235,"riÃ±":11236,"rillu":11237,"Ġhunta":11238,"Ġ().":11239,"chakuynin":11240,"ukru":11241,"tud":11242,"Ġkam":11243,"Ġnisqakunata":11244,"uski":11245,"ĠAhina":11246,"ĠSic":11247,"ĠSullana":11248,"Ġrej":11249,"Ġdoc":11250,"ĠMoro":11251,"ĠMedellÃŃn":11252,"Ġmul":11253,"ninkunap":11254,"Ġali":11255,"ĠKuk":11256,"Ġikwadur":11257,"esc":11258,"ĠUyu":11259,"ĠUrib":11260,"ĠRak":11261,"ĠIm":11262,"lier":11263,"Ġwatapikama":11264,"Ġkanchis":11265,"Ġsutiyuqmi":11266,"Ġqillqaqa":11267,"Ġ1921":11268,"Ġ1923":11269,"Ġyuyu":11270,"Ġkaqninkuna":11271,"1936":11272,"kanchik":11273,"ĠNic":11274,"ĠAnt":11275,"Ġtiemp":11276,"tanku":11277,"Ġ360":11278,"huasi":11279,"unchawpiqa":11280,"Ġrimayninkuna":11281,"gow":11282,"ĠWiru":11283,"unankama":11284,"Ġcul":11285,"Ġyachayniyoq":11286,"acon":11287,"khan":11288,"Ġkutita":11289,"Ġwarmikunawan":11290,"Ġyachaqarqan":11291,"ĠChicago":11292,"Ġhamuch":11293,"phy":11294,"ĠRodolfo":11295,"Wiru":11296,"abi":11297,"Ġnikun":11298,"zada":11299,"Ġlagar":11300,"Ġwayn":11301,"Ġrimapay":11302,"Ġrimarin":11303,"isqanku":11304,"Ġastawanmi":11305,"ĠLaura":11306,"ĠEstero":11307,"Ġqulluy":11308,"Ġchikan":11309,"anchayqa":11310,"age":11311,"chkanmi":11312,"charisqa":11313,"ĠLewis":11314,"ĠCorinti":11315,"Ġescri":11316,"ĠÐĺ":11317,"Parque":11318,"Manu":11319,"kusqankuta":11320,"Ġwillaykunata":11321,"Ġrunakunatas":11322,"Ġalkali":11323,"ĠÎļ":11324,"Ġyawarta":11325,"Ġlluqsiq":11326,"Ġruwana":11327,"ĠRepublikakunap":11328,"Ġniraq":11329,"Ġsinta":11330,"Ġkallpawan":11331,"ĠLuisa":11332,"simbur":11333,"hammad":11334,"Frank":11335,"Salvador":11336,"ikrarqan":11337,"Ġkawsayninmanta":11338,"Waranqa":11339,"ĠQuito":11340,"ĠYanama":11341,"ÐºÐ°":11342,"ĠRumanya":11343,"ĠIsaac":11344,"Ð»Ð°":11345,"Ġcomunidad":11346,"ologia":11347,"Ġkuyuq":11348,"ĠWallaqa":11349,"Ġpunkiy":11350,"puran":11351,"ĠTurqu":11352,"dunya":11353,"Aqumayu":11354,"hirriÃ±":11355,"ĠKatal":11356,"ĠOlmedo":11357,"ĠGregorius":11358,"ksand":11359,"ĠDirecciÃ³n":11360,"Pisqukuna":11361,"ĠĠĠĠĠĠĠĠ":11362,"ĠBenede":11363,"Biblia":11364,"Ġmunaspaykiqa":11365,"Ġunquchiq":11366,"Solanum":11367,"gisqatar":11368,"ĠNavarro":11369,"ĠæĿİ":11370,"ĠSingapur":11371,"Ġrespira":11372,"ĠTokyo":11373,"hirriÃ±aphi":11374,"750":11375,"Bon":11376,"Dyus":11377,"Fer":11378,"Florida":11379,"Hayka":11380,"Ita":11381,"Jon":11382,"Ken":11383,"Limaq":11384,"Qata":11385,"Sur":11386,"Sami":11387,"Tal":11388,"Wam":11389,"cca":11390,"caya":11391,"dar":11392,"fan":11393,"gman":11394,"mento":11395,"nus":11396,"ÅŁ":11397,"tama":11398,"qaspa":11399,"chos":11400,"llÃ¡y":11401,"ayÃ¡":11402,"arinku":11403,"mil":11404,"mir":11405,"Ġpuma":11406,"Ġpres":11407,"tio":11408,"manam":11409,"Ġhat":11410,"Ġhanpi":11411,"Ġhich":11412,"chakurqan":11413,"Ġqui":11414,"Ġkaman":11415,"ĠPallan":11416,"ĠCultura":11417,"ĠCrosby":11418,"ĠSill":11419,"ĠSup":11420,"Ġwatas":11421,"Ġhuktaq":11422,"ĠMani":11423,"Ġmishi":11424,"Ġrijch":11425,"Ġrunataqa":11426,"encio":11427,"enberg":11428,"ĠHuklla":11429,"ĠHei":11430,"ale":11431,"ĠQSHKS":11432,"ĠRon":11433,"ĠIhiptu":11434,"kunchik":11435,"ĠChuta":11436,"ĠTun":11437,"ĠPierre":11438,"Ġkananmi":11439,"Ġtunqur":11440,"ĠJi":11441,"ĠDer":11442,"uripi":11443,"ciata":11444,"amari":11445,"ĠGro":11446,"ĠGÃ¶":11447,"awaka":11448,"Ġqillqata":11449,"Ġtata":11450,"ombre":11451,"ipe":11452,"achÃ¡":11453,"alliy":11454,"Ġmunayninta":11455,"chismi":11456,"Ġpachapas":11457,"dou":11458,"doval":11459,"cobo":11460,"Ġtur":11461,"ĠFord":11462,"Ġ365":11463,"inkichu":11464,"havn":11465,"payay":11466,"Ġlaqu":11467,"Ġislaw":11468,"ĠChayna":11469,"ĠWilla":11470,"Ġ1844":11471,"chino":11472,"Ġhayaq":11473,"pejo":11474,"achamanta":11475,"acÃ¡n":11476,"ilar":11477,"Ġhamuy":11478,"180":11479,"ĠRich":11480,"Andre":11481,"kunawanqa":11482,"Ġmikhusqa":11483,"Ġwatakamaqa":11484,"Ġawr":11485,"Ġbil":11486,"Ġpusaqninmi":11487,"ĠManÃ¡":11488,"Ġ900":11489,"wart":11490,"warqa":11491,"waranqa":11492,"illaymanta":11493,"arumilla":11494,"anchaypi":11495,"ĠCoo":11496,"agas":11497,"Ġtukukuq":11498,"biyu":11499,"Ġwaqllisqa":11500,"Ġruruyuq":11501,"uglas":11502,"ujuy":11503,"denas":11504,"Waylas":11505,"Ġyanapayta":11506,"ĠÎł":11507,"elileo":11508,"ĠAlegre":11509,"Ġayllunkuna":11510,"ĠPeÃ±a":11511,"ĠwaÃ±uchiyta":11512,"Qallarina":11513,"ĠBagua":11514,"orod":11515,"Kitu":11516,"elqasqa":11517,"LLAQTA":11518,"ĠHuÃ±unakuy":11519,"Inkakunap":11520,"ĠYorkshire":11521,"ĠMinh":11522,"Ġukupi":11523,"ĠWakcha":11524,"Ġwayllukuy":11525,"ĠMercado":11526,"Ð»Ð¸":11527,"NicolÃ¡s":11528,"yoqmi":11529,"Ġruwasqanta":11530,"ĠWillkawaman":11531,"ĠTrujillo":11532,"ĠBravo":11533,"Ġyachachisqanmanta":11534,"Alexand":11535,"ĠGrau":11536,"allanes":11537,"Kuyuq":11538,"Oscar":11539,"ĠNasyunkuna":11540,"ĠHurtado":11541,"Ġreqsisqa":11542,"ĠAranway":11543,"Ã¢n":11544,"Ã¸ben":11545,"ĠQUECHUA":11546,"tocÃ³":11547,"Ġbarri":11548,"ĠKutakachi":11549,"ĠKunrisunman":11550,"ĠChikitus":11551,"ĠElisabet":11552,"ĠWaytara":11553,"Yayayku":11554,"TAQTAQ":11555,"ĠSaksaywaman":11556,"Ġbautiz":11557,"Ġvino":11558,"ĠParinaqutapas":11559,"imitaqi":11560,"Ġtiwlli":11561,"Ġphaxsi":11562,"ĠKAWSAY":11563,"eminario":11564,"ĠUgarte":11565,"ÐµÑĩÑĥÐ°":11566,"Ã¸benhavn":11567,"700":11568,"Ani":11569,"Aphrika":11570,"Bob":11571,"Ce":11572,"Cel":11573,"Del":11574,"Muna":11575,"Mos":11576,"Nawa":11577,"Pru":11578,"Paqa":11579,"Rio":11580,"Rey":11581,"Tuku":11582,"UT":11583,"Uj":11584,"Valle":11585,"dd":11586,"drin":11587,"eva":11588,"gina":11589,"hta":11590,"haq":11591,"hari":11592,"hanka":11593,"khi":11594,"lara":11595,"mino":11596,"nÃ¶":11597,"ptiy":11598,"png":11599,"stein":11600,"yarqan":11601,"yco":11602,"Â´":11603,"Ãį":11604,"Ġaqu":11605,"ananku":11606,"anga":11607,"tayta":11608,"inf":11609,"inman":11610,"aqya":11611,"Ġkhata":11612,"isu":11613,"asis":11614,"aral":11615,"Ġlluchk":11616,"Ġhatu":11617,"Ġhisp":11618,"chamanta":11619,"ruta":11620,"Ġqiq":11621,"Ġqurqan":11622,"kiman":11623,"Ġchar":11624,"Ġmara":11625,"ĠSuti":11626,"Ġsimitaqa":11627,"Ġ116":11628,"Ġatis":11629,"Ġrikuna":11630,"Ġrikuq":11631,"Ġpak":11632,"ĠKall":11633,"ĠKell":11634,"ĠKimsantin":11635,"ĠLaw":11636,"paqucha":11637,"alpa":11638,"ĠQurani":11639,"Ġkayhina":11640,"ĠRiy":11641,"quot":11642,"ĠTuta":11643,"ĠTakiy":11644,"Ġsutiman":11645,"tinyu":11646,"Ġmanya":11647,"toral":11648,"ladel":11649,"Ġrunakunapi":11650,"1918":11651,"1932":11652,"allos":11653,"raymi":11654,"ĠNiko":11655,"ĠNuestra":11656,"ĠNuÃ±uwa":11657,"Ġmilagro":11658,"Ġtumpa":11659,"ĠFon":11660,"dado":11661,"Ġwillam":11662,"Ġlan":11663,"wayu":11664,"Ġallinlla":11665,"Ġallinchayta":11666,"Ġintra":11667,"Ġiskuy":11668,"ĠMark":11669,"ÃĳuÃ±uq":11670,"vier":11671,"Ġ1824":11672,"Ġ1890":11673,"Ġcristian":11674,"ĠInte":11675,"Ġyachaypi":11676,"atapas":11677,"chiqta":11678,"Ġuywasqa":11679,"Ġkantunpa":11680,"Ġyachakun":11681,"Ġyachakuy":11682,"php":11683,"Ġwasimanta":11684,"Ġwasikunata":11685,"ĠWikipidiyaqa":11686,"ĠWikipidiyapi":11687,"uraz":11688,"Ġkitillipipas":11689,"shqa":11690,"Chaypacha":11691,"Ġwayllay":11692,"itos":11693,"kuspam":11694,"ĠÃ±awpaqman":11695,"qaqta":11696,"rqaspa":11697,"Ġapasqa":11698,"Ġqullpa":11699,"Ġqullqin":11700,"Ġwatana":11701,"punchik":11702,"Ġkikinta":11703,"ĠWayq":11704,"dorf":11705,"heim":11706,"à¤¨":11707,"lasgow":11708,"osada":11709,"CHAY":11710,"drÃŃa":11711,"ficio":11712,"Ã±iqi":11713,"Ġallintachu":11714,"Mad":11715,"Maman":11716,"Ġkasqaku":11717,"carpus":11718,"Ġakllaspa":11719,"ĠRaimondi":11720,"ĠTibet":11721,"ĠDyusmi":11722,"ordina":11723,"ĠQaras":11724,"Ġkausaypi":11725,"ÏģÎ¹":11726,"Ġyaykuy":11727,"AntaÃ±iqiq":11728,"ĠRufino":11729,"Ġ1868":11730,"ĠCanseco":11731,"Ġhuchay":11732,"à¥ĩ":11733,"Ġyachaywasipi":11734,"Ġajll":11735,"ĠCamaraqa":11736,"ĠTantanakuynin":11737,"Allwiya":11738,"ĠStewart":11739,"Ġtradi":11740,"Ġrawray":11741,"Ġqallawap":11742,"ĠLeonardo":11743,"ĠHenri":11744,"ĠServi":11745,"ĠUrasuyupi":11746,"ĠPartidupi":11747,"Ġakllanakuypi":11748,"ĠTiksimuyup":11749,"Ġumanpi":11750,"ĠCatÃ³lica":11751,"ĠQhipaq":11752,"Qayna":11753,"Purimuq":11754,"ĠKkota":11755,"ĠâľĶ":11756,"ĠJudas":11757,"Mikhuna":11758,"ĠJordÃ¡n":11759,"Ġunqunayaq":11760,"ĠGranada":11761,"ĠWolfgang":11762,"KaymanTinkimuq":11763,"550":11764,"AC":11765,"Ahinataq":11766,"Boli":11767,"EC":11768,"Gab":11769,"Gustavo":11770,"Kat":11771,"KAY":11772,"Kawallu":11773,"Lon":11774,"MAS":11775,"NO":11776,"Pumaq":11777,"Raw":11778,"Suri":11779,"Seg":11780,"Tra":11781,"Wayta":11782,"gÃ³n":11783,"hana":11784,"ichiy":11785,"met":11786,"nor":11787,"ppi":11788,"tl":11789,"tist":11790,"yce":11791,"ÂŃ":11792,"Øª":11793,"à¯":11794,"chuk":11795,"chea":11796,"llus":11797,"aywan":11798,"pika":11799,"iswa":11800,"asyu":11801,"asÃ±a":11802,"asani":11803,"kunaka":11804,"tique":11805,"Ġllamiy":11806,"kuku":11807,"kutu":11808,"manchus":11809,"Ġhamawt":11810,"chapi":11811,"Ã±ka":11812,"Ġllaqtapura":11813,"Ġsur":11814,"qanqan":11815,"Ġquna":11816,"tua":11817,"ĠPab":11818,"usuy":11819,"ĠAhinataq":11820,"ĠAdolfo":11821,"ĠCari":11822,"ĠCalla":11823,"ĠStu":11824,"ĠSac":11825,"Ġraya":11826,"Ġhukchakuq":11827,"uytu":11828,"ĠMaw":11829,"ĠMusi":11830,"ĠMaqanakuy":11831,"Ġsimipas":11832,"uque":11833,"Ġ110":11834,"ninka":11835,"Ġachik":11836,"illos":11837,"enna":11838,"ĠHunt":11839,"ĠHAS":11840,"anqam":11841,"anqap":11842,"ĠQH":11843,"ĠQill":11844,"Ġkaypa":11845,"ĠBob":11846,"ĠWA":11847,"Ġpruwinsyakuna":11848,"ĠRuwaq":11849,"ĠIran":11850,"ĠIqiptu":11851,"kunta":11852,"orth":11853,"ĠTan":11854,"ĠTre":11855,"ĠTeo":11856,"ĠTaka":11857,"chaypi":11858,"tintaq":11859,"Ġsuyupitaq":11860,"Ġmanyan":11861,"Ġmanqus":11862,"ĠJawira":11863,"Chaku":11864,"Ġchaypacha":11865,"Ġasno":11866,"ipsis":11867,"Ġumanta":11868,"Ġays":11869,"Ġpitapas":11870,"1938":11871,"Ġmiem":11872,"imri":11873,"pud":11874,"ĠEv":11875,"ĠEast":11876,"irun":11877,"Ġhawamanta":11878,"Ġwiyulin":11879,"Ġmayqan":11880,"unchawnin":11881,"Ġhinatan":11882,"ĠVaca":11883,"ĠMak":11884,"anita":11885,"Ġlawa":11886,"ĠMargaret":11887,"ĠChayraykun":11888,"Ġ1823":11889,"peza":11890,"itiy":11891,"ankuman":11892,"Ġurqukunam":11893,"Ġkutichin":11894,"alajara":11895,"Ġpusana":11896,"ĠamaÃ±a":11897,"eck":11898,"right":11899,"etta":11900,"aranÃ¡":11901,"yunpi":11902,"berta":11903,"Chayanta":11904,"ĠPadilla":11905,"bour":11906,"Ġfaringitis":11907,"Ġ1551":11908,"Ġwillakunata":11909,"organi":11910,"Ġ99":11911,"ĠIslay":11912,"ĠCarrillo":11913,"Ġ800":11914,"Ġachkata":11915,"Ġkapurqan":11916,"Ġparkiqa":11917,"Ġapostol":11918,"kunanchikpaq":11919,"ttp":11920,"verbios":11921,"Ġmaskay":11922,"ĠCop":11923,"ĠWaychu":11924,"mphi":11925,"ĠSid":11926,"ĠSiwil":11927,"Ġwaqyaspa":11928,"Ġunquymanta":11929,"Ġawqaqkunap":11930,"à¤²":11931,"Ġukhuman":11932,"ĠXVI":11933,"ribu":11934,"Ġkasharqan":11935,"allado":11936,"Ġtawak":11937,"ambik":11938,"amburg":11939,"Ġepinefrina":11940,"Ã¶r":11941,"Ġsinti":11942,"ĠBello":11943,"ĠAbdul":11944,"ĠÃ±aÃ±u":11945,"ĠAwqanakuy":11946,"erald":11947,"eredia":11948,"Ġmikhunam":11949,"galpa":11950,"Ġ1902":11951,"Ġ1905":11952,"Ġkausayta":11953,"Ġllikam":11954,"Ġsaywapi":11955,"xiamas":11956,"ĠChaymantapacha":11957,"INDIA":11958,"Ġmusiyu":11959,"amanq":11960,"Antamarka":11961,"Ġ1879":11962,"ziz":11963,"ĠQhari":11964,"Antikunapi":11965,"Ġ1896":11966,"Ġministrun":11967,"Ġhunumanta":11968,"ĠCharlotte":11969,"ĠAdela":11970,"Alejandro":11971,"Ġlloqsim":11972,"ĠShipi":11973,"Ġameri":11974,"ĠAzul":11975,"ERINDIA":11976,"ĠVirgen":11977,"Awstiriya":11978,"ĠPinto":11979,"ĠAguirre":11980,"Lukana":11981,"Ġtiqsimuyupi":11982,"Ġrakinakurqan":11983,"ĠNegro":11984,"ĠWeber":11985,"ĠPatricia":11986,"Ġauto":11987,"Ġqhispisqa":11988,"tellano":11989,"muruku":11990,"ĠFitzcarrald":11991,"taleza":11992,"ĠSasachakuy":11993,"ĠestreptocÃ³":11994,"ĠTimoteo":11995,"urduy":11996,"Ġgobierno":11997,"ĠEjecuti":11998,"ĠLudwig":11999,"ĠComitÃ©":12000,"Ġkapitalista":12001,"ĠAMERINDIA":12002,"ĠCÃ¡rdenas":12003,"ĠAcosta":12004,"!!":12005,"Adolfo":12006,"Ben":12007,"Cer":12008,"Fre":12009,"Gal":12010,"Hil":12011,"Jarani":12012,"Kristu":12013,"Lin":12014,"Leo":12015,"Mir":12016,"MAQ":12017,"Mulli":12018,"Nuna":12019,"Qutu":12020,"Sant":12021,"Sutisuyu":12022,"UC":12023,"Uqu":12024,"West":12025,"Yo":12026,"Yupa":12027,"]\",":12028,"bio":12029,"dÃ¡":12030,"ffi":12031,"jamin":12032,"kins":12033,"ln":12034,"mei":12035,"natan":12036,"sur":12037,"ssel":12038,"upu":12039,"wisa":12040,"zh":12041,"zz":12042,"Äħ":12043,"äº":12044,"Ġastika":12045,"ches":12046,"ayan":12047,"aqlla":12048,"kunachu":12049,"Ġpos":12050,"tier":12051,"rie":12052,"kuwa":12053,"Ġhudyu":12054,"pawa":12055,"ĠllaqtaÃ±iq":12056,"Ġnatu":12057,"kat":12058,"kaw":12059,"kachu":12060,"kaptinmi":12061,"ĠPr":12062,"uspan":12063,"rade":12064,"kiwan":12065,"kiÃ±a":12066,"ĠAis":12067,"ĠAvil":12068,"Ġchil":12069,"ĠSUYU":12070,"Ġripun":12071,"Ġrikunalla":12072,"Ġrunamasin":12073,"ĠÃ±in":12074,"Ġkitinmi":12075,"ĠKancha":12076,"ĠKristiyanu":12077,"ĠHaya":12078,"ĠLamar":12079,"hio":12080,"ĠUrq":12081,"ĠBush":12082,"ĠWeb":12083,"ĠIÃ±iy":12084,"qutu":12085,"ĠChill":12086,"ĠChac":12087,"anaku":12088,"ĠTama":12089,"ĠTuc":12090,"chawpi":12091,"toco":12092,"ĠDatem":12093,"ĠGue":12094,"index":12095,"ĠPiruwpas":12096,"Ġumay":12097,"Ġayninakuy":12098,"kchiq":12099,"Ġkaqhina":12100,"Ġpiti":12101,"1910":12102,"1913":12103,"Ġmunana":12104,"ĠAndrÃ©":12105,"ĠAnthony":12106,"ĠEle":12107,"cada":12108,"olaria":12109,"wice":12110,"huan":12111,"huru":12112,"Ġhinallata":12113,"Ġinmun":12114,"Ġism":12115,"Ġisraeli":12116,"kinchu":12117,"ĠChaywan":12118,"virus":12119,"Ġ1829":12120,"Ġ1841":12121,"Ġ1857":12122,"Ġ1886":12123,"Ġ58":12124,"ukllachishka":12125,"Ġmayupi":12126,"Ġkutiqa":12127,"cedes":12128,"ceolaria":12129,"Ġhinapuni":12130,"Pipas":12131,"ets":12132,"ĠRico":12133,"Ġnikuq":12134,"Ġrimari":12135,"ĠWachu":12136,"ĠPaolo":12137,"jada":12138,"box":12139,"Ġfac":12140,"egrande":12141,"Altu":12142,"Ġ1532":12143,"ĠCarl":12144,"ĠCarol":12145,"ĠEstados":12146,"Ġapun":12147,"ĠHuac":12148,"itas":12149,"verde":12150,"ĠAyti":12151,"ĠGubir":12152,"ĠFranco":12153,"Ġunquywan":12154,"ĠRansis":12155,"Ġestado":12156,"Arturo":12157,"Ġrep":12158,"Ġkashanku":12159,"Ġvol":12160,"ĠJoya":12161,"Ġmuyuri":12162,"Ġallintapuni":12163,"Max":12164,"Ġarhintin":12165,"amayka":12166,"ĠPoma":12167,"ĠGary":12168,"tusku":12169,"Ġwaqaychanapaq":12170,"Ð¾Ð½":12171,"Ġhuchasapa":12172,"Ġminutu":12173,"Ġkananpaqqa":12174,"gramu":12175,"Ġumalliqninsi":12176,"Ġoffic":12177,"Ġmallkim":12178,"zaro":12179,"ĠQarawili":12180,"Ġqillqanchik":12181,"ĠantibiÃ³ticos":12182,"akunti":12183,"Antapampa":12184,"allampakunam":12185,"ĠRoss":12186,"Ġukhunman":12187,"ĠQankunaqa":12188,"ichki":12189,"mondi":12190,"ederaciÃ³n":12191,"Guillermo":12192,"ÑģÐºÐ¸":12193,"aytucha":12194,"Ġtakichaqmipas":12195,"Awqa":12196,"ĠBilisi":12197,"ĠChurinta":12198,"ĠhuÃ±ukuna":12199,"Ġhuchayuq":12200,"ĠSarakuru":12201,"Ġyachaywasikunapi":12202,"ĠWalter":12203,"ĠCiudad":12204,"ĠWilson":12205,"Ã±awpaq":12206,"ĠHansuyupa":12207,"ĠGaleras":12208,"Churikuna":12209,"Ġmuksichaqta":12210,"urango":12211,"Abd":12212,"Vicente":12213,"Victoria":12214,"Ġlaqhay":12215,"Tuktun":12216,"ĠÃģngeles":12217,"KaÃ±ar":12218,"Ġlarunpi":12219,"Llut":12220,"ÏīÎ½":12221,"akincha":12222,"ĠKasma":12223,"ĠKurawara":12224,"glesia":12225,"ĠCecilia":12226,"usticia":12227,"ĠMuÃ±oz":12228,"Ġejerci":12229,"RamÃ³n":12230,"lismuman":12231,"ĠEgipto":12232,"Machaqa":12233,"ĠCorazÃ³n":12234,"Ġcheqni":12235,"Augusto":12236,"ĠArequipa":12237,"Ġpiruwki":12238,"ĠClemente":12239,"ĠBudapest":12240,"Ġiliktrun":12241,"ĠDakota":12242,"KaskaSutisuyu":12243,"áĥĶáĥ":12244,"ðĲĮ":12245,"ĠLombardia":12246,"QallarinaKaskaSutisuyu":12247,"bourne":12248,"alladolid":12249,"ĠAvilÃ©s":12250,"::":12251,"Asi":12252,"Bis":12253,"Fi":12254,"Gar":12255,"Haw":12256,"Kall":12257,"Kusa":12258,"Pir":12259,"Suni":12260,"Tutura":12261,"Yachaq":12262,"\\\\":12263,"akunanpaq":12264,"cciÃ³n":12265,"dral":12266,"iyu":12267,"mor":12268,"nispa":12269,"ochu":12270,"oto":12271,"pÃ©":12272,"punapaq":12273,"ston":12274,"tens":12275,"uv":12276,"zhou":12277,"Â«":12278,"ÄŁ":12279,"ĠÃ¡":12280,"table":12281,"llayki":12282,"unfo":12283,"ayra":12284,"pisi":12285,"ines":12286,"aqninmi":12287,"ispan":12288,"isyun":12289,"aski":12290,"arta":12291,"waÃ±usqa":12292,"Ġpul":12293,"Ġpasa":12294,"tifi":12295,"kuptinmi":12296,"Ã±asqa":12297,"rusqa":12298,"Ġsub":12299,"Ġqorqan":12300,"wanda":12301,"kichej":12302,"ĠAP":12303,"ĠCus":12304,"ĠSor":12305,"appas":12306,"ĠMishi":12307,"iqmi":12308,"Ġmamallakta":12309,"nintam":12310,"Ġawan":12311,"ĠaÃ±ay":12312,"Ġacti":12313,"Ġripuy":12314,"ĠÃ±uÃ±":12315,"Ġsuyupa":12316,"chir":12317,"chiki":12318,"enc":12319,"ĠHamp":12320,"ĠLam":12321,"ĠLuri":12322,"ĠLara":12323,"esqan":12324,"Ġ\"-":12325,"ĠUS":12326,"ĠUlla":12327,"paqtaq":12328,"ĠQi":12329,"Ġqaway":12330,"Ġqawasqa":12331,"quma":12332,"ĠChong":12333,"ĠChanchamayu":12334,"lima":12335,"Chayta":12336,"toma":12337,"Ġchaykunaqa":12338,"Ġchaypiqa":12339,"ĠDÃ¡":12340,"cito":12341,"ĠGri":12342,"ĠGui":12343,"ĠGustavo":12344,"Ġtariy":12345,"ĠUmasuyu":12346,"nimpi":12347,"Ġkaqninkunata":12348,"Ġpipis":12349,"ĠNaran":12350,"ĠAnder":12351,"cabamba":12352,"Ġtili":12353,"ĠFede":12354,"onse":12355,"Ġ350":12356,"terus":12357,"llani":12358,"luwin":12359,"Ġurayka":12360,"ĠMakusani":12361,"Ġisklaw":12362,"ĠMarco":12363,"Ãĳiqi":12364,"Ġcui":12365,"ĠIndunisya":12366,"asqankuta":12367,"Ġhayun":12368,"Ġhaykuspa":12369,"Ġyachaymanta":12370,"ĠOxford":12371,"Ġwatamantam":12372,"chanan":12373,"kunamantawan":12374,"urata":12375,"ĠMamaËĲ":12376,"Ġmarkapiqa":12377,"vada":12378,"bero":12379,"ĠAlb":12380,"ĠArchi":12381,"ĠAren":12382,"ĠArthur":12383,"bao":12384,"Ġmikhunan":12385,"Ġbru":12386,"ĠQhapaqnin":12387,"ĠParque":12388,"Ġ71":12389,"kurqani":12390,"ĠKami":12391,"ĠIsmael":12392,"120":12393,"Ġkamayuqkuna":12394,"eropu":12395,"ĠAmazonas":12396,"Ġyakup":12397,"2019":12398,"ĠRunap":12399,"ĠHua":12400,"ĠHuaman":12401,"akuyta":12402,"veira":12403,"Ġ[...":12404,"ĠRep":12405,"Ġwallqanqan":12406,"andÃŃa":12407,"Ġqankunaqa":12408,"Ġhampina":12409,"atiq":12410,"Ġwasip":12411,"pusaq":12412,"Ġallpapiqa":12413,"ĠCorpora":12414,"ĠBarri":12415,"ĠBartolomÃ©":12416,"Ġespiritu":12417,"Ġukhumanta":12418,"Mary":12419,"Ġchunta":12420,"gart":12421,"Ġpaqarichin":12422,"ĠAyala":12423,"ĠKungu":12424,"ĠPotosÃŃ":12425,"Ġllimp":12426,"ĠSuperi":12427,"chinapaqqa":12428,"calipsis":12429,"ĠPhuyu":12430,"ĠRimanakuynin":12431,"ĠBeatriz":12432,"ĠmaÃ±akun":12433,"Chuqlluqucha":12434,"Llimphiq":12435,"ÐµÐ´":12436,"Ġ1903":12437,"Ġvida":12438,"rÃŃquez":12439,"Kawsaq":12440,"ganda":12441,"KUNATA":12442,"ĠNoel":12443,"Î¹ÏĤ":12444,"Ġtantanakuypa":12445,"Yawli":12446,"ĠYanapakuy":12447,"Ġ1875":12448,"Ġ1876":12449,"Ġchayamuq":12450,"Ġimayaypa":12451,"ĠCristina":12452,"otball":12453,"Ð»Ðµ":12454,"ĠJaime":12455,"Guad":12456,"illantaq":12457,"Ġqhawana":12458,"Ġmuyuq":12459,"ĠFerre":12460,"ĠJehovÃ¤":12461,"Khallka":12462,"ĠBongarÃ¡":12463,"ĠHansuyu":12464,"Qispiqanchi":12465,"Alimanyapi":12466,"Ġpruphis":12467,"ĠWilliams":12468,"yimbo":12469,"ĠDouglas":12470,"Ġkawsarimp":12471,"ĠEmilia":12472,"ĠJesucristoq":12473,"ICN":12474,"ĠRipuwlikap":12475,"ĠKunturkanki":12476,"Ġ(?)":12477,"Ġchillki":12478,"Lampalliqi":12479,"Chiqap":12480,"Ġyawrinmi":12481,"ukratiya":12482,"ĠSurata":12483,"ĠKapchiypi":12484,"ĠsupervisiÃ³n":12485,"ĠNapoli":12486,"Ġgermanu":12487,"sallpu":12488,"pudungun":12489,"ĠestreptocÃ³cica":12490,"Cari":12491,"CÃ¡":12492,"Dar":12493,"GUA":12494,"Huq":12495,"Hark":12496,"Maw":12497,"Musiku":12498,"Nin":12499,"Napu":12500,"Paqta":12501,"Pet":12502,"PAS":12503,"Qara":12504,"Sik":12505,"Sajama":12506,"Sucre":12507,"Tan":12508,"UK":12509,"Win":12510,"YPE":12511,"bera":12512,"cam":12513,"cama":12514,"cco":12515,"dens":12516,"dista":12517,"fuerte":12518,"lar":12519,"mÃŃn":12520,"rya":12521,"rero":12522,"velo":12523,"ykuq":12524,"ÄĽ":12525,"Ïİ":12526,"áĪ":12527,"Ġer":12528,"taciÃ³n":12529,"qasqan":12530,"llip":12531,"iso":12532,"isal":12533,"asra":12534,"miyu":12535,"Ġsispa":12536,"Ġsil":12537,"Ġpe":12538,"Ġperi":12539,"Ġpantasqa":12540,"tido":12541,"Ġhab":12542,"yachiy":12543,"paku":12544,"pallana":12545,"Ġllaqtakunapas":12546,"Ġqor":12547,"Ġquspa":12548,"Ġqurpa":12549,"ĠPisi":12550,"ĠPumaq":12551,"ĠPulgar":12552,"Ġnisqakunapi":12553,"usill":12554,"ĠAmarakaeri":12555,"imipi":12556,"ĠCala":12557,"ĠSz":12558,"ĠSuri":12559,"ĠStra":12560,"Ġdiya":12561,"apana":12562,"ĠMera":12563,"iqucha":12564,"Ġmuq":12565,"ulyu":12566,"uqhu":12567,"onte":12568,"onio":12569,"Ġrunashimi":12570,"ĠÃ±anta":12571,"illims":12572,"Ġsuyus":12573,"erta":12574,"chio":12575,"ĠKana":12576,"ĠKuriya":12577,"ĠKhan":12578,"ĠKÃ¸benhavn":12579,"ĠLEN":12580,"esh":12581,"Ġsimipim":12582,"ĠUsiyan":12583,"ĠUICN":12584,"alan":12585,"ĠQel":12586,"ĠQupa":12587,"ĠWiktionary":12588,"ĠIllinois":12589,"kunayoq":12590,"Ġqaya":12591,"ĠChata":12592,"ĠCharkas":12593,"anaki":12594,"ĠTap":12595,"ĠTat":12596,"ĠTapi":12597,"ĠTirul":12598,"Ġmanu":12599,"ĠJones":12600,"Chiq":12601,"cipa":12602,"ĠGana":12603,"ĠYuyay":12604,"omino":12605,"Ġkawsaspa":12606,"achis":12607,"1919":12608,"Ġmundo":12609,"ĠEt":12610,"cab":12611,"Ġtupi":12612,"wicha":12613,"willa":12614,"huara":12615,"ispampa":12616,"unchawkuna":12617,"Ġinfor":12618,"Ġ1880":12619,"apaqari":12620,"akaq":12621,"Ġchakata":12622,"Ġrato":12623,"derick":12624,"ĠOla":12625,"khay":12626,"Ġiskaychay":12627,"Ġpaykunan":12628,"Ġhamunqa":12629,"Ġhampin":12630,"Piru":12631,"rinkuna":12632,"Ġparlan":12633,"Wira":12634,"iao":12635,"zaga":12636,"ĠArn":12637,"Ġpukllana":12638,"shÅ«":12639,"Ġlachiwa":12640,"Ġrimash":12641,"Ġimayuq":12642,"Ġ72":12643,"yaykuna":12644,"Ġpuriyta":12645,"oble":12646,"askachakuq":12647,"Iskusya":12648,"136":12649,"ucal":12650,"ralde":12651,"ĠRepubli":12652,"uwina":12653,"ĠAylluruna":12654,"Ġ09":12655,"pachaman":12656,"atiy":12657,"Ġ2019":12658,"Ġtiyaqkuna":12659,"akupaya":12660,"ĠCorrea":12661,"aqupampa":12662,"ishqa":12663,"Ġtukunanpaq":12664,"Ġllaqtakunapipas":12665,"ĠWarayu":12666,"ĠMayukillap":12667,"ĠPopul":12668,"ĠwaÃ±uchisqan":12669,"ĠTomas":12670,"Ġwaranqaysu":12671,"onica":12672,"Ġphutu":12673,"ĠArab":12674,"Unay":12675,"Ġviral":12676,"ĠSiland":12677,"Warma":12678,"Ġqhipaman":12679,"ING":12680,"ĠHous":12681,"Urupampa":12682,"ASQA":12683,"ĠHinataq":12684,"rimm":12685,"Ġqhepata":12686,"ninkuwan":12687,"ĠRuway":12688,"ĠJane":12689,"ichÃ©":12690,"Ã©rmino":12691,"Ġimayaykunam":12692,"ĠImaraykuchus":12693,"mont":12694,"otel":12695,"Ø§ÙĨ":12696,"Ð»ÑĮ":12697,"ĠWikimedia":12698,"Ġqayna":12699,"Ġtiksicha":12700,"Ġ1864":12701,"Ġashwan":12702,"gnos":12703,"Ġyachachinku":12704,"kimsa":12705,"ĠLeoncio":12706,"ĠKalalit":12707,"Jaime":12708,"siquwina":12709,"ĠQillqaqkuna":12710,"ĠWantar":12711,"General":12712,"ĠÄĲ":12713,"rigoyen":12714,"ĠtsÃ«":12715,"tukancha":12716,"ĠTriunfo":12717,"ĠCajamarca":12718,"Ġtapurqanku":12719,"Ġyachanichu":12720,"ĠCOSUDEp":12721,"ĠAwahun":12722,"Romagna":12723,"ĠHipÃ³lito":12724,"Ġnillarqantaqmi":12725,"ĠGrosso":12726,"ĠayÃ±im":12727,"ĠEstrada":12728,"ĠFigueroa":12729,"Ġtradicional":12730,"Ġarhintinu":12731,"ĠLENGUA":12732,".\",":12733,"Camp":12734,"Cami":12735,"Cusco":12736,"Hel":12737,"Hab":12738,"Kuk":12739,"Kim":12740,"Paymi":12741,"Qun":12742,"UQ":12743,"clo":12744,"dÃ³":12745,"iqan":12746,"italya":12747,"kisqa":12748,"lon":12749,"lÃ³":12750,"line":12751,"ming":12752,"puspa":12753,"ptiyki":12754,"udi":12755,"vÃŃ":12756,"xto":12757,"zÃº":12758,"zyn":12759,"ÄĻ":12760,"Ġed":12761,"ankunaqa":12762,"llanakuy":12763,"inin":12764,"Ġkasun":12765,"unata":12766,"asaya":12767,"mit":12768,"yubiyu":12769,"Ġphawan":12770,"Ġlloj":12771,"rizon":12772,"chakuyta":12773,"Ġllaqtayoq":12774,"ĠqiwuÃ±a":12775,"Ġkakun":12776,"ĠPel":12777,"ĠPuliwya":12778,"Ġnisqatapas":12779,"rad":12780,"killaqta":12781,"ĠCue":12782,"ĠSum":12783,"ĠStre":12784,"ĠSyd":12785,"aptinqa":12786,"ĠMol":12787,"urÃŃ":12788,"uqkuna":12789,"uqwata":12790,"nintaqa":12791,"Ġale":12792,"Ġrunasqa":12793,"Ġsuyukunap":12794,"chikurqan":12795,"Ġpapata":12796,"ĠKari":12797,"ĠKub":12798,"ĠKuwa":12799,"ĠKemp":12800,"ĠwÃ±ka":12801,"istra":12802,"enga":12803,"ĠLista":12804,"ĠQuw":12805,"ĠBorg":12806,"ĠBanda":12807,"ĠWI":12808,"ĠWuliwiya":12809,"ĠRas":12810,"ĠRaj":12811,"Ġqat":12812,"ĠCham":12813,"chuyuq":12814,"chaymi":12815,"lian":12816,"lilla":12817,"tinpa":12818,"ĠPicchu":12819,"yanku":12820,"Ġtrans":12821,"ĠJis":12822,"Chuya":12823,"Ġchaypaq":12824,"ĠDami":12825,"Ġtall":12826,"ipuy":12827,"ipaya":12828,"Ġuti":12829,"nio":12830,"1935":12831,"1906":12832,"kanku":12833,"Ġpachapaq":12834,"Ġtutapi":12835,"hupi":12836,"Ġwanu":12837,"Ġwanki":12838,"Ġlinti":12839,"Ġallinpaq":12840,"kuqkunata":12841,"kunapta":12842,"Ġ1854":12843,"iyki":12844,"Kata":12845,"deau":12846,"itiwu":12847,"ĠOm":12848,"ĠOdrÃŃa":12849,"utis":12850,"uthiyu":12851,"Ġuyayuq":12852,"kho":12853,"Ġpushak":12854,"Ġpuquynin":12855,"Ġyachaqaq":12856,"Ġyachakunchu":12857,"Ġatipaspa":12858,"Ġhamp":12859,"Ġhamuni":12860,"ÃºÃ±i":12861,"ĠRow":12862,"Anton":12863,"Ġ61":12864,"Ġ66":12865,"ĠAlban":12866,"ĠArte":12867,"kuspaqa":12868,"Ġfamilia":12869,"Ġastawanqa":12870,"ĠAskha":12871,"ĠIslandya":12872,"ĠQullana":12873,"Ġkaptinsi":12874,"160":12875,"Ġtarirqan":12876,"Ġtaripasqan":12877,"ĠLlaqtakunap":12878,"Ġumalliqmi":12879,"Mamallaktata":12880,"Israyil":12881,"ĠHuar":12882,"Ġchaymantataqmi":12883,"Watimala":12884,"bilidad":12885,"Ġmusuqchasqa":12886,"Ġqillqasqanpi":12887,"inkuman":12888,"chisqanta":12889,"Ġriqsisqan":12890,"ĠÃ±awpagradupi":12891,"ĠBarre":12892,"cker":12893,"Ġreac":12894,"Ġchurinsi":12895,"Ġvas":12896,"ĠDeuts":12897,"Ġsunturpi":12898,"ĠSocial":12899,"ĠColumbia":12900,"ĠRepublikapa":12901,"ĠPhinsuyu":12902,"Qallu":12903,"ĠPalomino":12904,"grado":12905,"ĠCav":12906,"Ġpuris":12907,"Ġapakun":12908,"ĠPorras":12909,"Ġmunaylla":12910,"ĠHuÃ±un":12911,"chikunankupaq":12912,"tendo":12913,"Ġcheqas":12914,"rimera":12915,"Ġ1874":12916,"Ġchurakun":12917,"ĠGreen":12918,"Nico":12919,"Wankani":12920,"ĠFili":12921,"ĠAlfred":12922,"ĠSuyun":12923,"Barran":12924,"Ġmallkiqpa":12925,"Ġderecho":12926,"simuyup":12927,"ĠPeruano":12928,"Ġpatsa":12929,"Ġyapamanta":12930,"CACION":12931,"ĠChachakumani":12932,"Waskaran":12933,"Suyruqucha":12934,"idea":12935,"ideae":12936,"llankutaq":12937,"ĠAngÃ©lica":12938,"ght":12939,"ĠBosco":12940,"ĠBoston":12941,"ĠImayna":12942,"Ġsacri":12943,"Ġformula":12944,"Ġkachamusqa":12945,"ĠWamali":12946,"Wiraqucha":12947,"allmakunapi":12948,"Ġ(?):":12949,"Ġuniversi":12950,"glesi":12951,"ĠQuintana":12952,"Kapchiy":12953,"Ġsector":12954,"ĠMuÃ±ecas":12955,"ĠGalilea":12956,"bispo":12957,"Ġllamka":12958,"Ġkachkarqa":12959,"Ġthansakunam":12960,"Ġentienden":12961,"kawsay":12962,"Ġyamt":12963,"Chinchiru":12964,"waÃ±is":12965,"Ġemer":12966,"undesland":12967,"Ġqillqasunchik":12968,"ĠIturralde":12969,"Ġkampiuna":12970,"ĠGibb":12971,"PDF":12972,"TomÃ¡s":12973,"Ġsajra":12974,"dagaskar":12975,"Chukuwitu":12976,"ĠKachachi":12977,"ĠPurtuyiskunap":12978,"ĠOtavalo":12979,"Ġsindika":12980,"ĠCorintios":12981,"ĠSiwilchasqa":12982,"eropuerto":12983,"ĠRepÃºblica":12984,"ĠCorporation":12985,")-":12986,"Ayu":12987,"Im":12988,"It":12989,"Jos":12990,"Khi":12991,"Men":12992,"Mark":12993,"Nic":12994,"PuÃ±":12995,"Qur":12996,"Rom":12997,"Tap":12998,"Tsa":12999,"Wama":13000,"bama":13001,"cula":13002,"cencia":13003,"gno":13004,"iana":13005,"ibo":13006,"jes":13007,"nun":13008,"shu":13009,"samay":13010,"sub":13011,"uo":13012,"uza":13013,"wiq":13014,"ximo":13015,"zer":13016,"Çİ":13017,"Éª":13018,"ÑĪ":13019,"Ñı":13020,"Ø©":13021,"åį":13022,"ĠÏĢ":13023,"chkay":13024,"chwas":13025,"ayasqa":13026,"ayruma":13027,"inneq":13028,"aqtiy":13029,"ishin":13030,"iskultur":13031,"mall":13032,"mamay":13033,"arq":13034,"Ġsina":13035,"ĠsÃŃn":13036,"Ġpla":13037,"Ġpunchawpi":13038,"Ġpanu":13039,"Ġprima":13040,"tiki":13041,"titis":13042,"kuya":13043,"kupa":13044,"kuchkaptin":13045,"kullantaq":13046,"chal":13047,"chapas":13048,"paÃ±a":13049,"Ġllaqtapaq":13050,"Ġllaqtatas":13051,"Ġqis":13052,"Ġqich":13053,"turu":13054,"usqanku":13055,"ĠAur":13056,"ĠApo":13057,"Ġchup":13058,"imiro":13059,"ĠCur":13060,"ĠCant":13061,"uypi":13062,"ĠMYPE":13063,"Ġsimimantam":13064,"ĠmÃ¡":13065,"Ġmurunkunatam":13066,"Ġ115":13067,"onato":13068,"Ġries":13069,"Ġripu":13070,"illuta":13071,"Ġkir":13072,"Ġkichari":13073,"ĠKhi":13074,"ĠKit":13075,"ĠKhun":13076,"Ġirra":13077,"Ġiwriyu":13078,"ensi":13079,"ĠHapun":13080,"ĠLc":13081,"ĠLanthanu":13082,"ĠUqu":13083,"ĠQata":13084,"ĠQala":13085,"Ġkaytam":13086,"ĠBing":13087,"ĠBasa":13088,"ĠBamb":13089,"ĠIz":13090,"ĠThay":13091,"kuypa":13092,"kuyllu":13093,"lika":13094,"ĠJob":13095,"ĠJitpa":13096,"ĠDr":13097,"ĠDoro":13098,"cife":13099,"amal":13100,"ĠYar":13101,"ĠYaru":13102,"ĠYunkuyu":13103,"lab":13104,"laus":13105,"antay":13106,"Ġkaqllam":13107,"ĠpiÃ±a":13108,"rete":13109,"ĠAnqara":13110,"Ġallicha":13111,"ĠEus":13112,"ĠECUARUNARI":13113,"tanya":13114,"ĠFil":13115,"umen":13116,"arachupa":13117,"Ġwanka":13118,"Ġwitnam":13119,"Ġmayun":13120,"Ġmaymanta":13121,"Ġkamariy":13122,"unchawniyuqmi":13123,"ĠSantander":13124,"ĠÃ±awsa":13125,"Ġimarayku":13126,"ullun":13127,"ĠMain":13128,"Ġquchawan":13129,"vili":13130,"vieso":13131,"Ġyo":13132,"Ġ1882":13133,"Ġ1852":13134,"Ġ1887":13135,"Ġcal":13136,"ĠInlish":13137,"Llank":13138,"Ġyachayqa":13139,"Ġratu":13140,"Ġraqay":13141,"acham":13142,"ashka":13143,"Ġuywaq":13144,"ceo":13145,"Ġkarka":13146,"Ġatipay":13147,"Ã¡ng":13148,"Ġwasipim":13149,"ĠLlaqtan":13150,"Ġwillarqan":13151,"etts":13152,"ykiman":13153,"Ġwarmis":13154,"Ġintimanta":13155,"ĠArturo":13156,"aqaqa":13157,"Ġkawsaqkunap":13158,"ĠWaÃ±uy":13159,"ĠPati":13160,"Ġninkum":13161,"Ġfil":13162,"Ġastawantaq":13163,"Ġ1533":13164,"Ġ96":13165,"Ġmunash":13166,"ĠQullpa":13167,"ĠEstudios":13168,"Ġpukyukuna":13169,"Ġsayarispa":13170,"Ġtarikuq":13171,"hang":13172,"pool":13173,"anchayllu":13174,"Ġ07":13175,"ĠGua":13176,"kuyninmanta":13177,"ĠSiul":13178,"Ġatinchik":13179,"udÃ¡Ã±ez":13180,"Ġrisirwapiqa":13181,"ĠLeone":13182,"ĠNazar":13183,"à¤ª":13184,"ĠCortÃ©s":13185,"ĠBarat":13186,"ĠBarroso":13187,"ĠSalcedo":13188,"fico":13189,"Manaraq":13190,"Ġchurarqan":13191,"Ġpaqarichiq":13192,"ĠPedroqa":13193,"Ð¸ÑĢ":13194,"Ġsunqunku":13195,"Ġyuyaywan":13196,"Ã¼b":13197,"Ġyanapayninwan":13198,"tsin":13199,"ĠÎ£":13200,"ĠÎľ":13201,"seille":13202,"Ġqharipas":13203,"Ġsinch":13204,"bury":13205,"Carl":13206,"Ġhuchan":13207,"ĠDyuspaq":13208,"ĠAwki":13209,"Ã¤r":13210,"ĠAntamarka":13211,"Ġphuti":13212,"ĠMato":13213,"landis":13214,"ulumani":13215,"Ġkurkup":13216,"ĠJudea":13217,"ISQA":13218,"ISBN":13219,"Ġqayllan":13220,"Phaqcha":13221,"Ġwankurina":13222,"Ġllimphiqmi":13223,"runakuna":13224,"Ġpinchikillachana":13225,"Ġtulluyuq":13226,"Ġkuraka":13227,"ĠMunisipyu":13228,"ĠChurinqa":13229,"Ã¨s":13230,"Ã¨ve":13231,"BartolomÃ©":13232,"ĠGerardo":13233,"Ġyachachisqankunata":13234,"Ġchayraykum":13235,"Ġmunasqanman":13236,"ĠCien":13237,"Ġmayqinchus":13238,"Harawi":13239,"Calceolaria":13240,"Ġrawr":13241,"Ġmunaspaqa":13242,"ĠCONAIE":13243,"Hinaspa":13244,"Ġgraci":13245,"Misti":13246,"ÅĤaw":13247,"ĠDirectorio":13248,"Ġmiyusapa":13249,"ĠhuÃ±usqam":13250,"ĠpolÃŃtica":13251,"pukyu":13252,"ĠBrook":13253,"ĠDemok":13254,"Holland":13255,"Truhillu":13256,"ĠLlank":13257,"ĠÙħØŃÙħØ¯":13258,"uflo":13259,"ĠKkollu":13260,"ĠUkranya":13261,"Emilio":13262,"Ukranya":13263,"logÃŃa":13264,"Ġ{{":13265,"ĠPhilipinakuna":13266,"Ġapulliq":13267,"ristopher":13268,"ĠHitler":13269,"ĠIspaÃ±ap":13270,"Hirsiquwina":13271,"ĠHardy":13272,"ILING":13273,"inchaqkunapta":13274,"å·ŀ":13275,"ĠBenedetto":13276,"urazno":13277,"ĠServicio":13278,"Ġofficina":13279,"ÃºÃ±iga":13280,"900":13281,"Bos":13282,"Caj":13283,"Club":13284,"EF":13285,"Em":13286,"Hinan":13287,"Kir":13288,"Kil":13289,"Law":13290,"Lari":13291,"Ley":13292,"NIY":13293,"Pon":13294,"Pen":13295,"Pando":13296,"Ruq":13297,"Rosa":13298,"Tika":13299,"Tig":13300,"Yach":13301,"Yanaqucha":13302,"akunan":13303,"cari":13304,"cona":13305,"epi":13306,"furt":13307,"jam":13308,"jing":13309,"juela":13310,"mut":13311,"nÃ©":13312,"nec":13313,"provin":13314,"tiste":13315,"udo":13316,"vat":13317,"vol":13318,"warqanku":13319,"Ãĥ":13320,"á¹":13321,"Ġza":13322,"ananmi":13323,"chuka":13324,"une":13325,"unde":13326,"ayrimana":13327,"Ġkwa":13328,"Ġkins":13329,"marq":13330,"kunari":13331,"Ġsuk":13332,"Ġshi":13333,"Ġsank":13334,"Ġphas":13335,"Ġpoq":13336,"tiana":13337,"Ġlluy":13338,"kuri":13339,"kuchi":13340,"Ġhama":13341,"Ġ(~":13342,"patapi":13343,"ruqa":13344,"rusi":13345,"Ġnim":13346,"kapaq":13347,"kawri":13348,"Ġsuch":13349,"Ġsuyay":13350,"Ġqip":13351,"Ġqil":13352,"ĠPulitika":13353,"Ġnisqakunam":13354,"usÃ±i":13355,"wanchis":13356,"ĠAco":13357,"ĠAve":13358,"ĠAtucha":13359,"ĠAkchiq":13360,"Ġmachaq":13361,"ĠCis":13362,"ĠCasta":13363,"ĠSÃ¡":13364,"ĠSunin":13365,"Ġwatakunapiqa":13366,"Ġras":13367,"Ġhukniraq":13368,"amayu":13369,"ampasqa":13370,"ĠMura":13371,"ĠMuj":13372,"ĠMuqu":13373,"ulaymi":13374,"Ġ118":13375,"onga":13376,"ninpaq":13377,"Ġag":13378,"ĠKim":13379,"Ġwiq":13380,"pash":13381,"istina":13382,"enango":13383,"ĠHall":13384,"ĠLamb":13385,"insyun":13386,"awita":13387,"ĠBach":13388,"ĠBlas":13389,"ĠBurinkin":13390,"astiku":13391,"ĠRiq":13392,"ĠIwan":13393,"kunkichis":13394,"taqpi":13395,"atos":13396,"quis":13397,"ĠChu":13398,"ĠTsa":13399,"ĠTayaqaqa":13400,"elpa":13401,"Ġchaytaq":13402,"Ġchaysi":13403,"ĠDÃŃ":13404,"ĠGera":13405,"ĠGusta":13406,"ĠGÃ¡l":13407,"ĠGlasgow":13408,"wski":13409,"omys":13410,"Ġullun":13411,"Ġumayuq":13412,"chasqachu":13413,"nie":13414,"ĠwaÃ±up":13415,"Ġkalindaryum":13416,"1925":13417,"ĠmanaÃ±an":13418,"chish":13419,"ĠEDU":13420,"caca":13421,"tanapaq":13422,"uchuk":13423,"ĠFac":13424,"arab":13425,"arami":13426,"olis":13427,"),[":13428,"teca":13429,"ispaqa":13430,"Ġjaqay":13431,"Ġjuez":13432,"ĠMalla":13433,"anilla":13434,"guay":13435,"gues":13436,"Ġanali":13437,"ĠMaran":13438,"iypi":13439,"Ġcer":13440,"ankuchu":13441,"ullah":13442,"Ġamachan":13443,"pho":13444,"phyta":13445,"ptinku":13446,"iyatiwu":13447,"qaylla":13448,"manachu":13449,"eder":13450,"ĠArgen":13451,"Ġruwarqan":13452,"Chaypiqa":13453,"ĠYachaytaqpi":13454,"Ġchakana":13455,"anpaqqa":13456,"ĠwiÃ±arqan":13457,"ĠPark":13458,"ĠLadislao":13459,"Ġ77":13460,"Llaqtapata":13461,"ĠEsta":13462,"Ġ85":13463,"ĠHuamÃ¡n":13464,"Ġchiqaq":13465,"Ġkuyuchin":13466,"poda":13467,"Ġkamachikusqan":13468,"Ġphis":13469,"2018":13470,"Ġllaqtakunapa":13471,"Ġlicencia":13472,"Ġwaqy":13473,"inigal":13474,"Marco":13475,"Marcel":13476,"Parya":13477,"ĠPaso":13478,"Ġvulgar":13479,"atus":13480,"upita":13481,"Ġrumim":13482,"Ã¼rich":13483,"chell":13484,"ologna":13485,"Ġjinalla":13486,"ĠRahu":13487,"ebus":13488,"gica":13489,"Ġpampachay":13490,"killapa":13491,"Imataq":13492,"ĠTola":13493,"ĠValer":13494,"âĸª":13495,"ĠCasas":13496,"Llika":13497,"Ġtakisqa":13498,"Ġproyec":13499,"igante":13500,"ĠPort":13501,"ikrasqan":13502,"ĠÃģfrica":13503,"Inkakunaqa":13504,"Inkawasi":13505,"ĠJuÃ¡rez":13506,"ĠTorino":13507,"Ġ1871":13508,"Ġrakhu":13509,"purqanku":13510,"ĠJaÃ©n":13511,"ĠwaÃ±uchin":13512,"ĠwaÃ±uchinapaq":13513,"achiqucha":13514,"ĠAqupampilla":13515,"ĠWillkamayu":13516,"Ġliwrun":13517,"oledad":13518,"Ġqunchu":13519,"Ġlluqsirqan":13520,"Ġhuqar":13521,"laySta":13522,"Karl":13523,"ĠSuytukancha":13524,"Ġchakiyuq":13525,"ĠTheo":13526,"Ġhaqay":13527,"Yachakuqkunapa":13528,"paykichisqa":13529,"uebec":13530,"Ã±awpa":13531,"Ġsipirqan":13532,"ĠMuhu":13533,"ĠFootball":13534,"enns":13535,"ĠIndyapi":13536,"Ġllimphim":13537,"'''":13538,"ĠErnesto":13539,"Ġkurkunpi":13540,"Ġwatiq":13541,"ĠQhipa":13542,"Ġkunankamapas":13543,"Ġsimp":13544,"ĠSiwas":13545,"ĠPallasqa":13546,"Ġtusuymi":13547,"riktur":13548,"error":13549,"ĠMÃ©rida":13550,"Ġllajta":13551,"ĠItÃ©nez":13552,"Ġtuyru":13553,"umbai":13554,"ĠGuardia":13555,"ĠCelendÃŃn":13556,"Ġpurinakunapim":13557,"Tumpis":13558,"geoportal":13559,"ĠBabil":13560,"ĠIrupana":13561,"fferson":13562,"ĠFerrer":13563,"ĠIndÃŃgenas":13564,"Ġpuystu":13565,"Qupaqhawana":13566,"Ġikwaduryanu":13567,"Ġtiempon":13568,"ĠFederal":13569,"Ġtaripasqankuna":13570,"provincie":13571,"ĠDÃŃez":13572,"ĠGÃ¡lvez":13573,"layStation":13574,"AKI":13575,"Apunchis":13576,"Burinkin":13577,"Cat":13578,"DW":13579,"Evo":13580,"GÃ©n":13581,"Gonz":13582,"Hip":13583,"Hamp":13584,"Hullaqa":13585,"Lan":13586,"Luq":13587,"ME":13588,"Much":13589,"Mic":13590,"MaraÃ±":13591,"Pac":13592,"Pallqa":13593,"Pampas":13594,"Rob":13595,"Ruwaq":13596,"SuÃ±":13597,"Sapsi":13598,"Taw":13599,"Tuta":13600,"Up":13601,"URA":13602,"Uficial":13603,"Yuyay":13604,"Zamora":13605,"ah":13606,"bamb":13607,"cat":13608,"gins":13609,"gil":13610,"glish":13611,"num":13612,"oi":13613,"qhapaq":13614,"runku":13615,"sula":13616,"uin":13617,"yunal":13618,"Ê²":13619,"Ùĥ":13620,"á½":13621,"ĠčĊ":13622,"anpaj":13623,"tataj":13624,"qaya":13625,"charati":13626,"aychu":13627,"inaqucha":13628,"Ġkari":13629,"isismu":13630,"mill":13631,"Ġspin":13632,"Ġpanka":13633,"timpi":13634,"tidral":13635,"rian":13636,"rias":13637,"rilla":13638,"rientes":13639,"yacha":13640,"isqam":13641,"ukrata":13642,"Ġquta":13643,"tuyuq":13644,"tulo":13645,"Ġkatt":13646,"ĠPlan":13647,"ĠPine":13648,"ĠPariwanaqucha":13649,"Ġnisqapipas":13650,"rakuna":13651,"kikin":13652,"ĠApaq":13653,"ĠAug":13654,"ĠAward":13655,"ĠAcade":13656,"ĠSisa":13657,"ĠSurinam":13658,"aptiste":13659,"ĠMANA":13660,"ĠMiami":13661,"mantapis":13662,"Ġsimiyuq":13663,"ules":13664,"eris":13665,"ĠKulum":13666,"ĠKans":13667,"ĠKambuya":13668,"istÃ¡n":13669,"ĠHanka":13670,"ĠHui":13671,"ĠHamawt":13672,"ĠQuya":13673,"ĠBang":13674,"ĠBILING":13675,"ĠRuru":13676,"ĠRab":13677,"ĠRuray":13678,"ĠIman":13679,"quista":13680,"ĠChap":13681,"ĠChala":13682,"ĠChiqu":13683,"orÃŃa":13684,"ĠTinta":13685,"kuyman":13686,"asqachu":13687,"Ġmanachus":13688,"ĠJen":13689,"ĠJayupaya":13690,"Chu":13691,"Christian":13692,"Ġchayllapi":13693,"Ġchayraq":13694,"ĠDublin":13695,"ĠGeno":13696,"lava":13697,"ipzig":13698,"Ġaychanta":13699,"Ã³lo":13700,"Ġyuman":13701,"Ġkaqtinqa":13702,"1914":13703,"1927":13704,"Ġmanallataq":13705,"ĠNuqa":13706,"chisaq":13707,"chisunki":13708,"Ġmiran":13709,"reg":13710,"Ġalliy":13711,"tanbul":13712,"Ġqallariq":13713,"umbi":13714,"araÃ±a":13715,"witi":13716,"ĠSandoval":13717,"ĠÃ±awir":13718,"ĠMaurice":13719,"gura":13720,"Ġanchay":13721,"ĠMarx":13722,"ĠMaruku":13723,"goga":13724,"goza":13725,"Kayampi":13726,"Ġ1831":13727,"Ġ1822":13728,"Ġ1889":13729,"Ġ1881":13730,"Ġcam":13731,"Ġ52":13732,"Ġ57":13733,"Ġchapusqa":13734,"pec":13735,"Ġrakh":13736,"llaqtapi":13737,"ĠOmar":13738,"ĠOklahoma":13739,"utÃ¡n":13740,"Ġuywasqan":13741,"Ġkutipi":13742,"Ġkutichirqan":13743,"tern":13744,"Ġyachachina":13745,"Ġpaypura":13746,"kusunki":13747,"kuspanku":13748,"Ġhinaqsi":13749,"Pierre":13750,"Pilikula":13751,"Ġwasiqa":13752,"iyad":13753,"ecan":13754,"gador":13755,"abÃ³n":13756,"Ġsiki":13757,"Ġwaranqamanta":13758,"ĠAlva":13759,"ĠAlawsi":13760,"ĠAlmei":13761,"Chayqa":13762,"Ġbeca":13763,"Ġkusasqa":13764,"ĠÃ±awpaqenpi":13765,"Ġfa":13766,"Ġfiscal":13767,"anpaqpas":13768,"ĠwiÃ±aynin":13769,"Ġ76":13770,"ĠAntikunap":13771,"ĠHatunmayu":13772,"Ġmunarqanku":13773,"ĠEspÃŃritu":13774,"Ġpuririn":13775,"Ġumalliqsi":13776,"Ġapana":13777,"Ġqhipata":13778,"ĠAmachaq":13779,"Ġqallarirqanku":13780,"Ġ140":13781,"ĠZe":13782,"ĠZi":13783,"Asankaru":13784,"anchayninta":13785,"ĠKristuwal":13786,"Ġkamachiman":13787,"Ġqanqa":13788,"ĠGuill":13789,"asaka":13790,"pecial":13791,"ĠLeoni":13792,"inipi":13793,"ĠÐł":13794,"CHU":13795,"ĠSalom":13796,"Ġvac":13797,"Ġsunim":13798,"Ġrunakunataqa":13799,"Ġllaqtakunapim":13800,"Ġllaqtakunapiqa":13801,"Ġmunanchu":13802,"Waywash":13803,"Ġelec":13804,"ĠÎº":13805,"Ġyawarmanta":13806,"Ġpukllaqsi":13807,"llatachu":13808,"cale":13809,"ANTA":13810,"olÃŃtica":13811,"haynata":13812,"Carmen":13813,"ĠToribio":13814,"ĠTito":13815,"ĠBaÃ±os":13816,"Ġdios":13817,"Ġyuyaspa":13818,"aspanku":13819,"anchikmi":13820,"Llimphi":13821,"Ġtaksa":13822,"FranÃ§ois":13823,"ĠSilvia":13824,"Salwadur":13825,"culo":13826,"Ġqhipagradupi":13827,"ĠhuÃ±unasqa":13828,"ĠEduca":13829,"Ġwawqen":13830,"umbes":13831,"Ġllapanta":13832,"Titu":13833,"Ġtinku":13834,"Ġyanapakuy":13835,"Ø§Ø":13836,"valdo":13837,"tyle":13838,"psida":13839,"Ġ1897":13840,"Ġ1863":13841,"Ġ1866":13842,"Ġqarapi":13843,"illanes":13844,"ĠLoreto":13845,"ĠÃ±awiyuq":13846,"Ġhuqari":13847,"Ã¨re":13848,"Ġyachaywasikuna":13849,"Wikiliwrukuna":13850,"Ransis":13851,"Ġmakinpi":13852,"ĠLuksimbur":13853,"Uywa":13854,"ĠTantanakuykunap":13855,"Ġutqhay":13856,"Ġkamaqninmi":13857,"sky":13858,"Å«shÅ«":13859,"Kuba":13860,"Ġprutun":13861,"ĠOlga":13862,"Ġquyta":13863,"Willkapampa":13864,"Ġpukllaykamachiqmi":13865,"ĠÃĳawikaruy":13866,"Awstral":13867,"ĠJerusalen":13868,"Ġmedi":13869,"ĠhayÃ±iyuq":13870,"randt":13871,"ĠWankasanku":13872,"Wisaw":13873,"ukratiku":13874,"Ġllipin":13875,"ĠShuwar":13876,"Ġcasosmanta":13877,"ĠFundacionqa":13878,"ĠeconÃ³mi":13879,"Henry":13880,"ĠWikis":13881,"ĠDimukratiku":13882,"Ġumallinapaq":13883,"ĠIÃ±uku":13884,"ĠWitnampa":13885,"ĠAjinamanta":13886,"Ġqolqeta":13887,"illimsayaq":13888,"kistadur":13889,"ĠJallpÊ¼":13890,"ĠuÃ±naqa":13891,"ĠHerodes":13892,"ĠJesukristoq":13893,"Ġbarriukuna":13894,"ladelphia":13895,"luwinya":13896,"ĠSuperior":13897,"Ġsacrificio":13898,"ĠBasadre":13899,"ĠAlmeida":13900,"Aka":13901,"Apustul":13902,"CD":13903,"Cy":13904,"Centro":13905,"IKUNA":13906,"Kill":13907,"Mani":13908,"Maya":13909,"Mac":13910,"Naska":13911,"Puwpu":13912,"Qhu":13913,"Sala":13914,"Tun":13915,"Wuliwya":13916,"Waqa":13917,"Yaru":13918,"achiyta":13919,"bon":13920,"day":13921,"fesi":13922,"hÃ¡":13923,"ihiku":13924,"jatun":13925,"lya":13926,"nis":13927,"pÃ¡":13928,"sisi":13929,"vy":13930,"vania":13931,"zy":13932,"Ã¹":13933,"×¨":13934,"tain":13935,"unismo":13936,"inburg":13937,"ison":13938,"isario":13939,"mato":13940,"mala":13941,"mica":13942,"Ġspa":13943,"yuyay":13944,"tida":13945,"rimay":13946,"Ġhirka":13947,"chakunaqa":13948,"llatan":13949,"rukuna":13950,"ruki":13951,"rupun":13952,"rugal":13953,"Ġnap":13954,"tuqa":13955,"ĠAY":13956,"ĠAce":13957,"ĠALL":13958,"imir":13959,"ĠCru":13960,"ĠCapi":13961,"ĠCesar":13962,"ĠShina":13963,"ĠSeminario":13964,"amu":13965,"ular":13966,"ninkunam":13967,"Ġsuyukunaq":13968,"ermo":13969,"Ġpapil":13970,"ĠKawa":13971,"ĠKenn":13972,"ĠHeredia":13973,"paqchu":13974,"ĠQanqa":13975,"ĠQuntumasa":13976,"ĠBill":13977,"ĠBUH":13978,"arqantaq":13979,"ĠWallqa":13980,"ĠWei":13981,"ĠRuntu":13982,"ĠRurun":13983,"kunayki":13984,"quÃŃ":13985,"Ġ210":13986,"anaj":13987,"ĠTU":13988,"ĠTaw":13989,"Ġyallina":13990,"ĠyaÄī":13991,"ting":13992,"ĠPichqantin":13993,"Ġtrigo":13994,"Ġsuyupim":13995,"eland":13996,"arichin":13997,"Chaqa":13998,"Ġchayn":13999,"Ġchaytan":14000,"ĠDomin":14001,"cium":14002,"ĠGon":14003,"ĠGel":14004,"ĠGir":14005,"Ã¡te":14006,"ÃŃni":14007,"Ġllaqtanpi":14008,"Ġ1915":14009,"Ġasi":14010,"lago":14011,"Ġrunakunaka":14012,"niki":14013,"1920":14014,"ĠNg":14015,"Ġmuni":14016,"Ġmichi":14017,"kayqa":14018,"puru":14019,"Ã©leg":14020,"Ġpachakutiy":14021,"Ã±ak":14022,"uchka":14023,"arachi":14024,"aragoza":14025,"Ġkitiqa":14026,"Ġwit":14027,"Ġjall":14028,"Ġkamarisqan":14029,"Ġhinapi":14030,"ĠValladolid":14031,"ĠLiteratura":14032,"Ġinkas":14033,"lliy":14034,"ĠMarce":14035,"ĠMarino":14036,"ĠChaymantaqa":14037,"vic":14038,"viri":14039,"ĠWiÃ±":14040,"ĠWira":14041,"Ġ1839":14042,"Ġ1845":14043,"Ġ1884":14044,"Ġcl":14045,"Ġcruz":14046,"Kallawaya":14047,"perio":14048,"deen":14049,"ankum":14050,"asharqanku":14051,"Ġqhapaqpa":14052,"Ġmayumanta":14053,"Ġkutiy":14054,"Ġkachkaptinmi":14055,"Ġiskaymi":14056,"llampu":14057,"phun":14058,"Ã±aykuna":14059,"qaypi":14060,"manakuyuq":14061,"rigal":14062,"Ġpuchun":14063,"edy":14064,"ĠAlvar":14065,"ananchikpaq":14066,"bajo":14067,"aqaru":14068,"Ġwayllaq":14069,"Ġrimas":14070,"Ġimaykana":14071,"russel":14072,"thus":14073,"ĠCarrasco":14074,"Ġchakrapi":14075,"Ġchakrakunapi":14076,"Ġsayapa":14077,"Ġ170":14078,"Ġaswantataq":14079,"ĠMira":14080,"Ġapanqara":14081,"Ġyupaychaq":14082,"Ġyakuqa":14083,"Ġgran":14084,"uelo":14085,"hanul":14086,"WaÃ±uy":14087,"Ġ08":14088,"Ġphaq":14089,"bie":14090,"kaqucha":14091,"mouth":14092,"ĠMoore":14093,"asaj":14094,"Ġliy":14095,"Ġentre":14096,"ajo":14097,"Ġwawakunap":14098,"ĠÃĳuk":14099,"Ġuyarin":14100,"minedu":14101,"ĠPascua":14102,"ĠMontalvo":14103,"kunkuman":14104,"Ġkimsak":14105,"ĠJoÃ£o":14106,"Ġ240":14107,"kusqay":14108,"ĠManataq":14109,"Ġyanapasqa":14110,"ĠUnu":14111,"ĠUnquy":14112,"Ġatiyninwan":14113,"Ġchaypitaq":14114,"amaypata":14115,"Huac":14116,"gias":14117,"see":14118,"chaski":14119,"uÃ±ichiy":14120,"ĠAbd":14121,"Ġkallpachay":14122,"ĠVieira":14123,"ĠValparaÃŃso":14124,"ĠKamasqa":14125,"Ġyuyari":14126,"Ġqori":14127,"Ġqollu":14128,"Ġpurisqa":14129,"hamed":14130,"Ġraphiyuqmi":14131,"Ġqispichiq":14132,"uquÃ©n":14133,"Salinas":14134,"ĠPortugal":14135,"Ġtantachisqa":14136,"ĠHuÃ±una":14137,"Qullpa":14138,"Qullana":14139,"waqchu":14140,"Ġsunquwan":14141,"Ġsunquyuq":14142,"evallos":14143,"rimer":14144,"anamayu":14145,"ĠÃ±uÃ±uqmi":14146,"uguslaw":14147,"Ikwadurpa":14148,"Ġqhawapay":14149,"ĠWallpa":14150,"ĠWallanka":14151,"ĠCalvo":14152,"Ġwawanta":14153,"ĠWaskar":14154,"ĠVelÃ¡zquez":14155,"ĠReyn":14156,"Ġhatariq":14157,"Ġrimanakuspa":14158,"ĠComercio":14159,"ĠProgreso":14160,"ĠSimon":14161,"Ġmillayta":14162,"qhayta":14163,"Ġwatantin":14164,"ĠPeruana":14165,"ĠChikla":14166,"ĠJehovata":14167,"usillukunam":14168,"Saint":14169,"ĠAktinyu":14170,"ĠBonn":14171,"Ġwarminta":14172,"Ġqutupi":14173,"ĠBantu":14174,"ĠLanki":14175,"ennis":14176,"Pampamarka":14177,"Ġphawaq":14178,"Killaqa":14179,"GermÃ¡n":14180,"incent":14181,"Ġmancharikuychu":14182,"Ġkikillan":14183,"ylvania":14184,"ĠCatalina":14185,"Ġqhepaman":14186,"Ġchikichasqan":14187,"ĠGeorgia":14188,"Indihina":14189,"Ġuywakunappas":14190,"ĠPatrick":14191,"hamakuna":14192,"SimÃ³n":14193,"cienci":14194,"Ernesto":14195,"ä¸Ń":14196,"Ġservicio":14197,"ĠEugenio":14198,"Lucas":14199,"ĠJohann":14200,"ĠHills":14201,"ĠFundacionpa":14202,"ĠGamarra":14203,"ĠAntonia":14204,"ĠwaÃ±usqanmanta":14205,"ĠÃ±awiriywasi":14206,"ĠØ¨ÙĨ":14207,"Ruraqpa":14208,"Ġonqosqa":14209,"Ġwarkukuq":14210,"Ġkasukuq":14211,"Escuela":14212,"ĠDeportes":14213,"ĠFuentes":14214,"Pharsi":14215,"ĠEjecutivo":14216,"Ġ[...]":14217,"ĠSilandaq":14218,"ĠSydney":14219,"uthiyupaq":14220,"ĠGerais":14221,"ennsylvania":14222,"=\"":14223,"AB":14224,"Ampa":14225,"Aziz":14226,"Baptiste":14227,"Don":14228,"Etique":14229,"Hor":14230,"Hum":14231,"Hig":14232,"Kisa":14233,"Kanada":14234,"MS":14235,"Mall":14236,"Mil":14237,"OH":14238,"Oli":14239,"Paq":14240,"Pumaqucha":14241,"QS":14242,"SV":14243,"Suq":14244,"Ter":14245,"Tara":14246,"Tren":14247,"Wayu":14248,"bum":14249,"cÃ³":14250,"cÃŃa":14251,"emi":14252,"epa":14253,"fia":14254,"ffa":14255,"hap":14256,"hen":14257,"hat":14258,"hanaq":14259,"kÃ¤":14260,"len":14261,"lawa":14262,"nÃŃy":14263,"sn":14264,"suma":14265,"suqta":14266,"tpi":14267,"umanta":14268,"uga":14269,"Â±":14270,"Ãľ":14271,"Ðļ":14272,"åħ":14273,"åľ":14274,"ĠĠĊ":14275,"Ġamp":14276,"chy":14277,"chwan":14278,"piti":14279,"inga":14280,"inrich":14281,"aqpi":14282,"aqhi":14283,"Ġkuku":14284,"Ġkuka":14285,"mapi":14286,"mali":14287,"mamani":14288,"arÃ¡":14289,"rianu":14290,"Ġ(âĢł":14291,"llak":14292,"Ġwacha":14293,"ukunku":14294,"kachan":14295,"tuma":14296,"ture":14297,"Ġkallan":14298,"ĠPuyu":14299,"ĠPero":14300,"ĠPuc":14301,"ĠPelileo":14302,"Ġnisqakama":14303,"usl":14304,"ustino":14305,"kitus":14306,"ĠAG":14307,"ĠAchu":14308,"ĠAmp":14309,"ĠAsia":14310,"Ġchuya":14311,"Ġmaqaq":14312,"ĠCro":14313,"ĠCall":14314,"ĠCand":14315,"ĠCuen":14316,"ĠCatherine":14317,"ĠSall":14318,"Ġhukni":14319,"ulata":14320,"Ġllaqtapis":14321,"Ġ119":14322,"ninkama":14323,"Ġrunataq":14324,"Ġsuyukunapiqa":14325,"chira":14326,"ĠKB":14327,"ĠKultura":14328,"ĠKankallu":14329,"anqachu":14330,"ĠLus":14331,"ĠLanka":14332,"awasi":14333,"awara":14334,"osem":14335,"ĠUm":14336,"ĠUkhu":14337,"ĠBei":14338,"ĠBulgarya":14339,"ĠRis":14340,"Ġ230":14341,"orani":14342,"anaju":14343,"ĠTir":14344,"ĠTumawi":14345,"Ġyapari":14346,"chaymanta":14347,"sippi":14348,"ĠPikuta":14349,"Ġtes":14350,"Ġmanka":14351,"kamarka":14352,"ĠJas":14353,"ĠJers":14354,"ĠDra":14355,"ĠDil":14356,"urima":14357,"cidae":14358,"ĠGris":14359,"ĠGeo":14360,"ĠYuk":14361,"Ġtapuna":14362,"ÃŃl":14363,"Ġasinda":14364,"Ġkawsananpaq":14365,"Ġutu":14366,"Ġullu":14367,"rol":14368,"aqtaqa":14369,"Ġaychan":14370,"niypi":14371,"ĠNisqan":14372,"ĠNanay":14373,"chispas":14374,"kayninta":14375,"ĠAnka":14376,"Ġallwya":14377,"ĠEcon":14378,"Ã±apa":14379,"Ġtullun":14380,"chikman":14381,"Ġmaywiy":14382,"Ġjuz":14383,"unchawniyuq":14384,"ĠSankt":14385,"ĠVe":14386,"ullpa":14387,"Ġumapi":14388,"ĠMaz":14389,"ĠMati":14390,"ĠMadidi":14391,"Ġinkum":14392,"ĠMarta":14393,"vira":14394,"Kaymantapacha":14395,"chinan":14396,"Ġcap":14397,"Llamp":14398,"Ġchacha":14399,"Ġyurakunatam":14400,"Ġyurakunapas":14401,"Ġrahu":14402,"Ġradio":14403,"achalli":14404,"kusunchis":14405,"Ġatirqa":14406,"Ġatipana":14407,"Ġhamuchun":14408,"Ġamacha":14409,"Pichincha":14410,"Ġwasichasqa":14411,"Ġparla":14412,"tawanpas":14413,"utuy":14414,"Ant":14415,"Ġrikuchirqan":14416,"Ġ62":14417,"ĠArosem":14418,"ukusqa":14419,"Ġbote":14420,"qaqtan":14421,"102":14422,"egos":14423,"anpaqmi":14424,"Ġtarpusqa":14425,"ĠIsla":14426,"uigi":14427,"Ġ89":14428,"Ġ1781":14429,"Chiku":14430,"parqa":14431,"Ismael":14432,"Ġgrisya":14433,"TaytaËĲ":14434,"unchaynin":14435,"ĠZÃ¼rich":14436,"Ġkasqanman":14437,"illamanta":14438,"Ġsaqer":14439,"Ġ06":14440,"Ġphransya":14441,"Ġhampikuna":14442,"Ġtukuchin":14443,"Ġquyllurkuna":14444,"chkanchik":14445,"uspataq":14446,
[...]
